C	0
.	1
##00	2
##는	3
##을	4
##이	5
##1	6
##에	7
##가	8
##를	9
##다	10
##2	11
##은	12
##고	13
##게	14
##한다	15
##의	16
##0	17
##3	18
있	19
?	20
##하	21
##4	22
말	23
,	24
##지	25
##으로	26
##어	27
[SEP]	28
##5	29
##에서	30
##며	31
##한	32
##요	33
##와	34
##6	35
##로	36
##과	37
##도	38
##들	39
##서	40
거	41
##야	42
##7	43
##해	44
한다	45
안	46
하	47
##다고	48
##8	49
것	50
##아	51
E	52
없	53
##면	54
##9	55
##었	56
내	57
##기	58
##던	59
사람	60
##자	61
##하고	62
않	63
본다	64
나	65
집	66
!	67
##라고	68
##10	69
##는데	70
##어요	71
자신	72
그	73
보	74
일	75
보고	76
##들이	77
##냐	78
##11	79
묻	80
가	81
##겠	82
수	83
##만	84
##했	85
생각	86
##12	87
같	88
##인	89
왜	90
##네	91
##까	92
한	93
##습	94
##라	95
##주	96
전화	97
되	98
너	99
받	100
##니다	101
앞	102
##간다	103
잘	104
##13	105
##았	106
네	107
간다	108
다	109
##다는	110
아니	111
##할	112
알	113
차	114
해	115
이	116
하고	117
##테	118
먹	119
듣	120
뭐	121
소리	122
##본다	123
저	124
##나	125
##님	126
우리	127
##지만	128
앉	129
##겠다	130
발견	131
싶	132
##있	133
##죠	134
좀	135
##14	136
들	137
게	138
웃	139
다시	140
죽	141
손	142
##려	143
이야기	144
좋	145
##랑	146
얼굴	147
##15	148
##시	149
했	150
##러	151
문	152
##보	153
##데	154
##으	155
걸	156
건	157
지금	158
함께	159
##준다	160
돈	161
찾	162
못	163
무슨	164
##니	165
더	166
바라본다	167
##16	168
##니까	169
##려고	170
표정	171
##다가	172
모습	173
눈	174
엄마	175
때	176
얘기	177
놀란	178
제	179
남자	180
어떻게	181
여자	182
된다	183
##세요	184
할	185
##친다	186
여기	187
1	188
만나	189
나간다	190
##으면	191
방	192
##는지	193
같이	194
##실	195
들어간다	196
위해	197
잡	198
시작	199
##된	200
##해서	201
난	202
##든	203
##예	204
친구	205
##잖아	206
##이다	207
걱정	208
자리	209
사진	210
오	211
그런	212
어디	213
아이	214
중	215
##17	216
전	217
왔	218
##되	219
이제	220
다른	221
##대	222
술	223
나가	224
##린다	225
한편	226
대해	227
너무	228
뒤	229
계속	230
##장	231
대답	232
들어온다	233
오늘	234
당황	235
##라는	236
입	237
마음	238
사실	239
경찰	240
때문	241
시간	242
줄	243
인사	244
두	245
그때	246
듯	247
확인	248
열	249
2	250
##18	251
날	252
모르	253
맞	254
거라	255
##으며	256
씨	257
괜찮	258
짓	259
##셨	260
옆	261
당신	262
그냥	263
총	264
하지만	265
살	266
고개	267
부탁	268
##부터	269
아빠	270
몸	271
후	272
밖	273
##으니	274
이상	275
그럼	276
혼자	277
하나	278
갑자기	279
정말	280
그렇게	281
준다	282
주	283
회사	284
들어가	285
##19	286
보이	287
연락	288
서	289
타고	290
알아	291
##하면	292
나온다	293
번	294
##신	295
화	296
놀라	297
준비	298
가지	299
봐	300
알고	301
온	302
이렇게	303
따라	304
사이	305
옷	306
##입니다	307
쳐다	308
##달라	309
나오	310
미안	311
사랑	312
사	313
많	314
머리	315
아	316
곳	317
##사	318
채	319
##거	320
##줄	321
##인다	322
많이	323
자기	324
도착	325
학교	326
서로	327
진짜	328
##진	329
공격	330
아무	331
##진다	332
보인다	333
이런	334
핸드폰	335
##처럼	336
그래	337
들어	338
적	339
또	340
울	341
마	342
아직	343
사건	344
아버지	345
속	346
##구	347
물	348
데리	349
쓰	350
##적	351
가족	352
이름	353
결혼	354
위	355
못하	356
눈물	357
누구	358
도망	359
걸어	360
둘	361
모두	362
돼	363
대한	364
된	365
만들	366
피	367
사무실	368
애	369
다가	370
갈	371
##하라	372
##20	373
쪽	374
제안	375
도와	376
##받	377
##였	378
##일	379
잠시	380
##원	381
지	382
상황	383
됐	384
형	385
병원	386
그리고	387
찍	388
바라보	389
필요	390
다음	391
꺼내	392
물어	393
##게요	394
길	395
그만	396
##줘	397
빨리	398
믿	399
갔	400
대화	401
직원	402
##른다	403
없이	404
와	405
밥	406
가방	407
##더라	408
과거	409
읽	410
##합니다	411
일어나	412
##봐	413
끊	414
잠	415
그러	416
선생	417
학생	418
숨	419
기다리	420
##구나	421
기억	422
향해	423
##소	424
낸다	425
먼저	426
말라	427
마주	428
남	429
힘들	430
노래	431
##군	432
봤	433
근데	434
본	435
##래	436
##라도	437
문제	438
그런데	439
만난다	440
걷	441
그렇	442
마시	443
될	444
가게	445
고민	446
##21	447
##질	448
보내	449
넣	450
받아	451
##당	452
칼	453
##더니	454
아니야	455
찾아	456
꼭	457
좋아	458
팔	459
배	460
하자	461
부른다	462
##잖아요	463
좋아하	464
##해야	465
곧	466
키스	467
##치	468
놓	469
들어오	470
온다	471
돌아가	472
한숨	473
뛰어	474
넌	475
##선	476
가자	477
이번	478
책	479
사과	480
위로	481
##마	482
달려	483
그게	484
몇	485
처음	486
나와	487
##드	488
회상	489
건넨	490
막	491
##부	492
거절	493
참	494
##적으로	495
향한다	496
침대	497
자	498
거지	499
이유	500
##을까	501
##씨	502
놈	503
어떤	504
미소	505
##친	506
##스럽	507
##음	508
혹시	509
편지	510
##전	511
치	512
##수	513
마신다	514
비	515
달라	516
이거	517
##란	518
음식	519
통화	520
바로	521
순간	522
정신	523
누가	524
마을	525
형사	526
모든	527
##거리	528
죽이	529
잘못	530
선물	531
설명	532
##길	533
딸	534
##다면	535
식사	536
##년	537
호텔	538
언제	539
화장실	540
3	541
##차	542
나눈다	543
떠나	544
나라	545
##낸다	546
아들	547
큰	548
##이나	549
그래서	550
##히	551
##스	552
##거린다	553
부르	554
궁금	555
떠난다	556
##오	557
##버린	558
테	559
못한다	560
뭔가	561
바닥	562
쓰러진	563
기분	564
불	565
##인지	566
갖	567
##셔	568
타	569
식당	570
보여	571
대신	572
##비	573
발	574
##22	575
약속	576
##어야	577
세	578
조금	579
만	580
거짓말	581
뭘	582
##함	583
명	584
무시	585
한다고	586
##방	587
잡아	588
의심	589
##리	590
##엔	591
놀	592
와서	593
마지막	594
늦	595
내일	596
##단	597
이게	598
기사	599
기다린다	600
물건	601
이동	602
눈치	603
약	604
개	605
해서	606
다가온다	607
보여준다	608
기자	609
그랬	610
고백	611
떠올	612
##온다	613
밤	614
깨	615
파티	616
살아	617
##집	618
알려	619
건물	620
아침	621
문자	622
목	623
분	624
사장	625
밖에	626
그래도	627
정리	628
내린다	629
어린	630
끄덕	631
택시	632
검	633
결국	634
##지도	635
맞아	636
손님	637
새	638
##이지	639
도움	640
끝	641
그녀	642
##에도	643
그림	644
##간	645
##긴	646
일어난다	647
감	648
해야	649
간	650
힘	651
수도	652
소개	653
해요	654
오빠	655
쉬	656
정도	657
저녁	658
쫓아	659
##호	660
누워	661
##준	662
보낸다	663
새끼	664
야	665
사고	666
버스	667
얼마나	668
행복	669
너희	670
죽인	671
내리	672
방법	673
의사	674
조사	675
대	676
##듯	677
화가	678
신경	679
도시	680
##23	681
##께	682
##상	683
담배	684
올	685
반	686
죄송	687
누군가	688
검사	689
몰래	690
친다	691
범인	692
들어와	693
##스러운	694
커피	695
소식	696
주변	697
잃	698
행동	699
서류	700
비밀	701
목소리	702
부모	703
나서	704
데려	705
등	706
상태	707
내용	708
##도록	709
운	710
아내	711
##워	712
느낀다	713
남편	714
##관	715
꿈	716
명령	717
연습	718
흘린	719
긴장	720
짐	721
꺼낸	722
이때	723
감사	724
이미	725
데	726
##식	727
##다니	728
잠깐	729
볼	730
계획	731
질문	732
일행	733
든다	734
두고	735
싫	736
부	737
말씀	738
벽	739
위험	740
운전	741
겁니다	742
##해하	743
거리	744
다리	745
직접	746
거기	747
상처	748
##성	749
때린	750
##킨다	751
이해	752
쉰	753
연다	754
한번	755
고맙	756
나타나	757
찾아간	758
뒤로	759
##분	760
##져	761
정보	762
끝나	763
열심히	764
살인	765
벗	766
##여	767
시체	768
복도	769
보다	770
내려	771
그건	772
몰라	773
달	774
결정	775
불안	776
방송	777
장	778
아냐	779
창문	780
돌아	781
준	782
영화	783
응	784
이러	785
##느	786
카페	787
##대로	788
인간	789
엘리베이터	790
##소리	791
무	792
어깨	793
##데요	794
부하	795
끌	796
조심	797
##릴	798
언니	799
붙잡	800
##개	801
##놓	802
주인	803
중요	804
붙	805
##24	806
세상	807
짜증	808
##속	809
선배	810
어	811
##줬	812
불러	813
시선	814
어머니	815
벌	816
바람	817
영상	818
얼마	819
수술	820
TV	821
결심	822
아주	823
기	824
술집	825
장난	826
작	827
게임	828
당장	829
저희	830
##씩	831
계단	832
##돼	833
##트	834
피해	835
눈빛	836
다니	837
춤	838
##볼	839
찾아가	840
증거	841
널	842
##물	843
통해	844
동안	845
절대	846
책상	847
돌려	848
##러워	849
##봤	850
##문	851
관계	852
어쩔	853
그럴	854
성공	855
나타난다	856
촬영	857
경찰서	858
버린다	859
음악	860
요청	861
챙겨	862
척	863
할머니	864
##생	865
##화	866
메시지	867
##하시	868
##회	869
##온	870
아까	871
##키	872
동생	873
돌아간다	874
##됐	875
급하	876
다가가	877
싫어	878
탄다	879
휴대폰	880
노려	881
꽃	882
##긴다	883
말린	884
산	885
지내	886
알려준다	887
심	888
관심	889
너도	890
설득	891
자고	892
굳	893
든	894
아닌	895
##먹	896
나무	897
##범	898
##병	899
제대로	900
가야	901
변호사	902
기대	903
생일	904
건네	905
테이블	906
조용히	907
일단	908
##린	909
지시	910
돼요	911
축하	912
협박	913
나온	914
거실	915
가면	916
##정	917
어제	918
##석	919
얼른	920
귀신	921
##계	922
구하	923
어떡	924
##터	925
나선다	926
크	927
합니다	928
아저씨	929
글	930
카메라	931
방문	932
##까요	933
나누	934
아무것	935
좋아한다	936
지켜본	937
텐데	938
현장	939
차가	940
닫	941
맡	942
요즘	943
밀	944
의자	945
##통	946
##번	947
오래	948
4	949
담	950
싸우	951
출근	952
초	953
동료	954
##라면	955
공연	956
공부	957
출발	958
탄	959
예전	960
연기	961
잊	962
해결	963
##내	964
그거	965
##조	966
자료	967
소파	968
닦	969
뜬다	970
뉴스	971
지나가	972
신	973
기뻐	974
장소	975
쓴	976
자꾸	977
깜짝	978
##어도	979
건데	980
황당	981
진행	982
난감	983
떨	984
멈춘	985
포기	986
데이트	987
이건	988
잔	989
관련	990
수업	991
##건	992
##복	993
지역	994
신문	995
구해	996
맛있	997
만났	998
누나	999
빼	1000
신고	1001
##판	1002
고마워	1003
마치	1004
##하여	1005
본인	1006
그대로	1007
겁	1008
봐요	1009
자전거	1010
기차	1011
아래	1012
천천히	1013
찾아온다	1014
도망치	1015
새로운	1016
된다고	1017
가슴	1018
전부	1019
운동	1020
자동차	1021
치료	1022
인터뷰	1023
트럭	1024
돌아온다	1025
해도	1026
대로	1027
첫	1028
가만히	1029
지켜보	1030
창밖	1031
열리	1032
바다	1033
원하	1034
걸려	1035
괴로워	1036
욕	1037
##임	1038
원	1039
나중	1040
연주	1041
열쇠	1042
내민	1043
님	1044
원래	1045
하늘	1046
외	1047
##으면서	1048
봉투	1049
역시	1050
병실	1051
상	1052
가득	1053
자식	1054
난다	1055
예	1056
깨닫	1057
동네	1058
울리	1059
수사	1060
선수	1061
풀어	1062
자살	1063
##살	1064
종이	1065
던진다	1066
넘어	1067
##25	1068
아기	1069
회의	1070
청소	1071
그동안	1072
들리	1073
대체	1074
불편	1075
##감	1076
##선다	1077
죽음	1078
괴물	1079
##날	1080
##운다	1081
요구	1082
칭찬	1083
년	1084
##댄	1085
실망	1086
달리	1087
공	1088
팀	1089
##힌다	1090
사용	1091
화면	1092
사귀	1093
퇴근	1094
버리	1095
선	1096
국가	1097
병	1098
선다	1099
멈춰	1100
가려	1101
이혼	1102
무대	1103
##뿐	1104
쳐다보	1105
느끼	1106
위치	1107
밑	1108
거니	1109
충격	1110
그걸	1111
저기	1112
감정	1113
줘	1114
이사	1115
##제	1116
빈	1117
쏘	1118
##곤	1119
요리	1120
서서	1121
어서	1122
나왔	1123
그러면	1124
환자	1125
듯이	1126
##가요	1127
재판	1128
양	1129
##27	1130
능력	1131
성	1132
어느	1133
돌	1134
##더	1135
흘리	1136
집어	1137
가라	1138
숲	1139
체포	1140
오라	1141
주세	1142
전해	1143
다가와	1144
써	1145
##하니	1146
5	1147
주고	1148
마약	1149
젊	1150
분노	1151
##켜	1152
가능	1153
상대	1154
근처	1155
제발	1156
걸어가	1157
피아노	1158
비명	1159
살려	1160
##째	1161
실수	1162
녹음	1163
여행	1164
편	1165
##배	1166
멈추	1167
##챈	1168
떼	1169
처리	1170
경고	1171
만난	1172
##반	1173
만든	1174
제일	1175
누	1176
##밖	1177
배우	1178
옥상	1179
마세요	1180
삼	1181
철	1182
났	1183
##담	1184
절	1185
경기	1186
그러니까	1187
##층	1188
점점	1189
건지	1190
상자	1191
인생	1192
창고	1193
구경	1194
비행기	1195
우	1196
맞이	1197
딱	1198
기회	1199
주머니	1200
나쁜	1201
시험	1202
쏜	1203
이를	1204
교실	1205
작전	1206
인형	1207
돌아오	1208
귀	1209
거울	1210
##우	1211
풀	1212
얻	1213
떨어지	1214
##공	1215
##26	1216
웃음	1217
생겼	1218
##심	1219
했어요	1220
시	1221
따	1222
호	1223
들어선다	1224
뿐	1225
뜨	1226
##어지	1227
쥐	1228
의아	1229
군인	1230
가장	1231
답답	1232
쫓	1233
저승	1234
도망가	1235
보낸	1236
쓴다	1237
오해	1238
하루	1239
##팀	1240
올라간다	1241
조	1242
##론	1243
잠긴	1244
어색	1245
못했	1246
실패	1247
때리	1248
아파트	1249
회장	1250
연애	1251
오랜만	1252
결혼식	1253
둘러본	1254
뺏	1255
집안	1256
노력	1257
##파	1258
데려다	1259
그날	1260
마법	1261
카드	1262
죽여	1263
드	1264
주먹	1265
반대	1266
말없이	1267
기다려	1268
모여	1269
선택	1270
##난	1271
급히	1272
##탄	1273
지키	1274
아프	1275
훈련	1276
왕	1277
오토바이	1278
탈출	1279
뜻	1280
끝내	1281
##졌	1282
죽였	1283
반지	1284
위협	1285
올라가	1286
##금	1287
결과	1288
대표	1289
부인	1290
반응	1291
덮	1292
알아보	1293
지르	1294
어때	1295
##미	1296
여러	1297
쉽	1298
##등	1299
한참	1300
번호	1301
오지	1302
뒷모습	1303
주위	1304
돕	1305
##능력	1306
들린다	1307
별	1308
##척	1309
##보라	1310
끼	1311
살핀	1312
작업	1313
반갑	1314
움직이	1315
##점	1316
##이면	1317
그것	1318
사내	1319
추	1320
편의점	1321
자네	1322
살해	1323
하시	1324
##려면	1325
피하	1326
미친	1327
납치	1328
내려놓	1329
시계	1330
며칠	1331
땅	1332
소문	1333
찬	1334
분위기	1335
나이	1336
안내	1337
우연히	1338
손가락	1339
쓸	1340
##투	1341
재	1342
무리	1343
멀	1344
고	1345
무릎	1346
조언	1347
##창	1348
##박	1349
떨어진다	1350
싸움	1351
진심	1352
##명	1353
혼	1354
##둔	1355
##증	1356
지나간	1357
법	1358
갚	1359
섬	1360
빠르	1361
걸로	1362
시절	1363
##포	1364
무언가	1365
신부	1366
품	1367
올려	1368
장면	1369
##입	1370
엄청	1371
다가오	1372
서울	1373
##장이	1374
무엇	1375
##걸	1376
주방	1377
만든다	1378
##형	1379
은행	1380
위해서	1381
못해	1382
##기에	1383
막아	1384
점	1385
입구	1386
거부	1387
컴퓨터	1388
어쩌	1389
노	1390
벌써	1391
감옥	1392
달린다	1393
대해서	1394
부서	1395
알린	1396
##사자	1397
##될	1398
신발	1399
몰랐	1400
피우	1401
못한	1402
전한다	1403
영	1404
가문	1405
도로	1406
뒤돌	1407
멀리	1408
주문	1409
켜	1410
##두	1411
항상	1412
만족	1413
깬	1414
##모	1415
##본	1416
작가	1417
복수	1418
##나간	1419
##29	1420
위한	1421
조직	1422
세운다	1423
여	1424
맥주	1425
안녕	1426
진	1427
떠	1428
동의	1429
초대	1430
식	1431
싸운	1432
무기	1433
시키	1434
##동	1435
##버리	1436
##래요	1437
##중	1438
걔	1439
##28	1440
##눈	1441
여전히	1442
차량	1443
구	1444
망	1445
전달	1446
지나	1447
흔들	1448
어딨	1449
##겨	1450
##세	1451
안심	1452
##마다	1453
헤어지	1454
다행	1455
어이없	1456
던져	1457
들이	1458
박	1459
그래요	1460
혼란	1461
겨	1462
바	1463
연결	1464
사라진다	1465
몰	1466
들어서	1467
단	1468
빠진다	1469
도대체	1470
##성이	1471
기도	1472
교수	1473
이곳	1474
대회	1475
##렸	1476
##연	1477
##안	1478
싸	1479
죄	1480
##종	1481
후회	1482
마당	1483
고통	1484
건가요	1485
느낌	1486
쓰러져	1487
돌린다	1488
눕	1489
[UNK]	1490
##쳐	1491
덕분	1492
주저앉	1493
떨어진	1494
돌아서	1495
계약	1496
대단	1497
##봉	1498
속상	1499
일부러	1500
레스토랑	1501
##발	1502
별로	1503
존재	1504
와인	1505
모	1506
뒷	1507
곁	1508
부족	1509
올라	1510
##어버	1511
만날	1512
피해자	1513
껴안	1514
고생	1515
6	1516
취해	1517
간다고	1518
다친	1519
가요	1520
##드리	1521
##어보	1522
시킨다	1523
친	1524
거래	1525
최고	1526
당하	1527
빌려	1528
돌아보	1529
진실	1530
남아	1531
훔쳐	1532
안전	1533
##말	1534
그만두	1535
대통령	1536
'	1537
멍	1538
어차피	1539
실	1540
배달	1541
사인	1542
서둘러	1543
폭탄	1544
목숨	1545
새로	1546
기절	1547
의식	1548
끝났	1549
기록	1550
그리	1551
냄새	1552
인기	1553
할아버지	1554
점심	1555
##국	1556
얘	1557
방금	1558
인정	1559
##시다	1560
돌리	1561
심각	1562
##백	1563
스스로	1564
김	1565
강	1566
아니면	1567
##봐야	1568
파	1569
우린	1570
갈아입	1571
##학	1572
지켜	1573
각자	1574
정체	1575
##자리	1576
감탄	1577
아줌마	1578
용서	1579
겁니까	1580
##채	1581
##용	1582
강아지	1583
##뜨린다	1584
돌아온	1585
미국	1586
천	1587
삶	1588
작품	1589
##불	1590
던지	1591
빠져나	1592
유리	1593
메모	1594
대학	1595
데려가	1596
녀석	1597
집중	1598
클럽	1599
폭발	1600
나란히	1601
들어온	1602
##잡	1603
##시간	1604
똑같	1605
간호사	1606
사망	1607
탈	1608
뛰	1609
##애	1610
공항	1611
야구	1612
재밌	1613
아무리	1614
달려가	1615
떨어	1616
고양이	1617
다급	1618
##쯤	1619
식탁	1620
독	1621
##록	1622
군	1623
금방	1624
치고	1625
동물	1626
쳐	1627
잠든	1628
살피	1629
키	1630
피곤	1631
높	1632
건가	1633
##어진	1634
끌어안	1635
보호	1636
떨어져	1637
멍하니	1638
이래	1639
울음	1640
감독	1641
내려간	1642
매	1643
찾아와	1644
##십니까	1645
제압	1646
등장	1647
라디오	1648
##어진다	1649
생활	1650
잡지	1651
##경	1652
충고	1653
일인	1654
##주시	1655
시장	1656
올리	1657
생	1658
고등학교	1659
젖	1660
구석	1661
확실	1662
여긴	1663
반가	1664
상담	1665
뜯	1666
현관	1667
살짝	1668
코	1669
늘	1670
허락	1671
##같이	1672
아닌데	1673
꺼	1674
인	1675
아픈	1676
밀어	1677
다르	1678
둘러보	1679
주차장	1680
##울	1681
진정	1682
대원	1683
질투	1684
백	1685
불만	1686
주시	1687
도시락	1688
이것	1689
분명	1690
씁쓸	1691
우산	1692
감동	1693
생기	1694
10	1695
살펴본다	1696
##마자	1697
홀로	1698
나갈	1699
전혀	1700
##체	1701
사정	1702
실력	1703
매일	1704
흥분	1705
맘	1706
죽일	1707
뺨	1708
빼앗	1709
한쪽	1710
시도	1711
##어져	1712
할지	1713
지도	1714
대기	1715
씻	1716
걸음	1717
들려	1718
아파	1719
계산	1720
신호	1721
알리	1722
뚫	1723
멀리서	1724
추적	1725
불이	1726
바쁘	1727
설마	1728
전하	1729
아닙니다	1730
바라	1731
의견	1732
골목	1733
##약	1734
##꾼	1735
줬	1736
CCTV	1737
편하	1738
답	1739
초조	1740
파악	1741
이후	1742
노인	1743
방향	1744
단체	1745
좋아해	1746
꼬	1747
임신	1748
힘든	1749
관	1750
그쪽	1751
해준다	1752
모양	1753
날아	1754
망설이	1755
##없	1756
척하	1757
##무	1758
나간	1759
전화기	1760
명함	1761
시신	1762
숨기	1763
발표	1764
모니터	1765
올린다	1766
지원	1767
춘	1768
지갑	1769
자랑	1770
##잔	1771
깊	1772
찢	1773
빠져	1774
따라가	1775
현재	1776
차로	1777
통	1778
케이크	1779
숨긴	1780
다녀	1781
밟	1782
##줘야	1783
수갑	1784
##갈	1785
됩니다	1786
목걸이	1787
공원	1788
벌떡	1789
자주	1790
애인	1791
바꿔	1792
사기	1793
예쁘	1794
청	1795
나눠	1796
평생	1797
취한	1798
화장	1799
이기	1800
신나	1801
##롭	1802
잠들	1803
바뀌	1804
##권	1805
그놈	1806
##먼	1807
동아리	1808
업체	1809
돌아와	1810
벌인다	1811
뛰어나	1812
쪽지	1813
가까이	1814
마주치	1815
##짜	1816
창	1817
광고	1818
박스	1819
무섭	1820
##업	1821
소주	1822
의미	1823
지하	1824
전쟁	1825
떠올리	1826
무서워	1827
##위	1828
##그	1829
목격	1830
뽑	1831
##십	1832
응원	1833
##표	1834
##품	1835
기계	1836
참석	1837
회의실	1838
소년	1839
놔	1840
##십시오	1841
요원	1842
##절	1843
딴	1844
권총	1845
##어난	1846
사업	1847
따로	1848
사라지	1849
세계	1850
보냈	1851
왕국	1852
##짓	1853
상상	1854
닮	1855
태도	1856
절망	1857
서운	1858
배신	1859
이용해	1860
##민	1861
한다는	1862
교도소	1863
즐겁	1864
순	1865
옛날	1866
찾아오	1867
두리번	1868
꿇	1869
##벅	1870
차림	1871
마친	1872
틈	1873
악	1874
고기	1875
##거나	1876
포	1877
가르쳐	1878
##칠	1879
부장	1880
행사	1881
챙기	1882
즐거워	1883
아가씨	1884
군대	1885
어렵	1886
누군지	1887
팬	1888
부부	1889
##역	1890
난리	1891
어릴	1892
부정	1893
적힌	1894
빠져나간	1895
스	1896
드디어	1897
밝	1898
나갔	1899
감시	1900
##왔	1901
정	1902
인상	1903
수상	1904
얼	1905
##렁	1906
침	1907
쓰레기	1908
맨	1909
##견	1910
꽂	1911
모자	1912
미리	1913
표	1914
비웃	1915
구두	1916
망설	1917
##혀	1918
##땅	1919
헛	1920
한잔	1921
여학생	1922
했잖아	1923
##저	1924
수색	1925
거의	1926
생긴	1927
##어가	1928
놓인	1929
##근	1930
뛰쳐	1931
가져다	1932
보육	1933
마트	1934
##죽	1935
달려온	1936
현관문	1937
괜히	1938
내려가	1939
##프	1940
말리	1941
쓰다듬	1942
학원	1943
##운	1944
비행	1945
농담	1946
##천	1947
##초	1948
담담	1949
##레	1950
접근	1951
공장	1952
추억	1953
주민	1954
관리	1955
주소	1956
씩	1957
차리	1958
자세	1959
##든지	1960
단호	1961
도	1962
부분	1963
노트북	1964
걸린	1965
쓰러지	1966
연쇄	1967
구조	1968
특별	1969
인해	1970
방해	1971
##사진	1972
환호	1973
태우	1974
잔뜩	1975
맞춰	1976
##색	1977
한국	1978
##30	1979
유명	1980
업무	1981
만화	1982
##깐	1983
낮	1984
도청	1985
답한	1986
졸업	1987
만드	1988
차려	1989
벤치	1990
쟤	1991
큰일	1992
바보	1993
뭔	1994
꼴	1995
##합	1996
미	1997
보라	1998
업	1999
드라마	2000
향하	2001
도둑	2002
이걸	2003
당연	2004
안도	2005
건강	2006
오른다	2007
말다툼	2008
##행	2009
잡혀	2010
챙긴	2011
가져가	2012
##남	2013
방송국	2014
썼	2015
이젠	2016
계시	2017
일찍	2018
억울	2019
연	2020
파일	2021
토	2022
이리	2023
아이템	2024
노려보	2025
귀찮	2026
바꾸	2027
##월	2028
판	2029
오르	2030
##칫	2031
주장	2032
내부	2033
포옹	2034
##다닌다	2035
유	2036
끄	2037
맛	2038
이용	2039
신기	2040
들어왔	2041
일당	2042
##족	2043
반장	2044
오히려	2045
##웠	2046
지으며	2047
당연히	2048
한심	2049
완전히	2050
##녀	2051
인질	2052
못할	2053
판단	2054
저번	2055
뭔데	2056
겨우	2057
빚	2058
중국	2059
##피	2060
취	2061
사라진	2062
##노	2063
착각	2064
환	2065
낳	2066
확	2067
##놨	2068
손목	2069
피식	2070
해줘	2071
묶	2072
궁	2073
놀러	2074
부축	2075
심장	2076
##매	2077
재미있	2078
상관없	2079
##올	2080
증인	2081
찌	2082
기타	2083
끌려	2084
경비	2085
신청	2086
모임	2087
붉	2088
동시	2089
중얼	2090
##타	2091
가짜	2092
찾아왔	2093
역	2094
빵	2095
어른	2096
황급히	2097
벨	2098
속도	2099
티	2100
##31	2101
급	2102
당한다	2103
##33	2104
아무래도	2105
경	2106
소	2107
##32	2108
##검	2109
놀이	2110
설치	2111
지난	2112
담당	2113
부엌	2114
비슷	2115
곡	2116
팀장	2117
밴드	2118
범죄	2119
흔	2120
아르바이트	2121
너머	2122
태운	2123
고향	2124
즐거운	2125
만지	2126
면접	2127
비상	2128
넘	2129
빠지	2130
두드	2131
가시	2132
돼서	2133
테이프	2134
##끼리	2135
##책	2136
수락	2137
이불	2138
일어	2139
매니저	2140
확신	2141
곤란	2142
##락	2143
때려	2144
훈	2145
마무리	2146
##어졌	2147
해고	2148
이럴	2149
동영상	2150
흐느	2151
걸어온	2152
슬퍼	2153
룸	2154
로비	2155
모른다고	2156
멱살	2157
주지	2158
소리치	2159
##목	2160
세우	2161
모른	2162
산다	2163
만약	2164
내려온	2165
꾸	2166
서랍	2167
교장	2168
줄게	2169
의해	2170
##쉰	2171
##귀	2172
가진	2173
걸리	2174
##커	2175
어딘가	2176
가져	2177
빤히	2178
숙인	2179
길이	2180
다정	2181
들으며	2182
현	2183
##억	2184
인터넷	2185
##열	2186
아시	2187
빠진	2188
용	2189
지하실	2190
해외	2191
미래	2192
흐르	2193
가만	2194
지하철	2195
##법	2196
까	2197
현실	2198
엉망	2199
찾아온	2200
증언	2201
##술	2202
용의자	2203
누르	2204
엿	2205
반박	2206
시켜	2207
실종	2208
숨겨	2209
날린	2210
쓰여	2211
미쳤	2212
복잡	2213
위기	2214
훔친	2215
이어	2216
공중	2217
##카	2218
##교	2219
구한다	2220
입원	2221
명의	2222
금	2223
불법	2224
기운	2225
가운데	2226
겪	2227
##루	2228
흐뭇	2229
물끄러미	2230
##산	2231
낫	2232
도서관	2233
푼	2234
헤어진	2235
##돈	2236
될까요	2237
##달	2238
도중	2239
금고	2240
##닥	2241
일본	2242
주사	2243
도박	2244
탓	2245
##둘	2246
##짝	2247
옮긴	2248
여성	2249
##작	2250
피운	2251
벌이	2252
드리	2253
아니요	2254
가리킨다	2255
어두운	2256
쏴	2257
몰아	2258
##시고	2259
운동장	2260
이마	2261
대본	2262
고마워요	2263
부딪	2264
끝난	2265
강도	2266
##순	2267
뿌리	2268
개인	2269
손짓	2270
이모	2271
감싸	2272
조작	2273
비디오	2274
내밀	2275
흔적	2276
담긴	2277
미행	2278
##처	2279
샤워	2280
무조건	2281
뽑아	2282
놓여	2283
환영	2284
그곳	2285
책임	2286
졸	2287
아마	2288
7	2289
보석	2290
털어놓	2291
##침	2292
병사	2293
패	2294
숙소	2295
냉장고	2296
운명	2297
초인	2298
조건	2299
젓	2300
면	2301
취소	2302
털	2303
상관	2304
대가	2305
만큼	2306
가정	2307
노트	2308
따르	2309
공개	2310
비서	2311
면회	2312
어찌	2313
몰라요	2314
SNS	2315
소녀	2316
종	2317
##벨	2318
##철	2319
끈다	2320
##패	2321
뭔지	2322
경험	2323
허리	2324
##쩍	2325
##전기	2326
질	2327
##직	2328
참여	2329
허	2330
불량	2331
##골	2332
꽤	2333
보안	2334
##립니다	2335
소원	2336
##바	2337
라면	2338
주차	2339
봐야	2340
억지로	2341
일정	2342
긴	2343
평소	2344
크리스마스	2345
##럽	2346
삼촌	2347
팀원	2348
이따	2349
악수	2350
조각	2351
태워	2352
불쌍	2353
공포	2354
이쪽	2355
나머지	2356
근무	2357
싫어하	2358
논	2359
교회	2360
##둬	2361
잠겨	2362
##설	2363
새벽	2364
인물	2365
##청	2366
자유	2367
삐	2368
일어서	2369
어떠	2370
차례	2371
진술	2372
##아이	2373
프로그램	2374
##탕	2375
덜	2376
##결	2377
홍보	2378
나와서	2379
의원	2380
예상	2381
##낼	2382
관한	2383
이만	2384
버튼	2385
입장	2386
극장	2387
솔직	2388
총알	2389
판사	2390
민	2391
그릇	2392
시골	2393
진지	2394
낚	2395
쓰러	2396
엄청난	2397
나올	2398
리가	2399
문득	2400
했었	2401
행방	2402
오디션	2403
시각	2404
속이	2405
거대	2406
모텔	2407
자는	2408
땐	2409
무서운	2410
동	2411
마구	2412
어울리	2413
용기	2414
거칠	2415
사라졌	2416
키우	2417
맞은	2418
떤	2419
골	2420
칠	2421
작성	2422
따라오	2423
그저	2424
부리	2425
마차	2426
보도	2427
멋있	2428
걸어오	2429
옮기	2430
빠른	2431
지구	2432
고객	2433
바닷가	2434
넘기	2435
아무렇	2436
위장	2437
전투	2438
뒤집어	2439
구멍	2440
##났	2441
음	2442
연극	2443
마셔	2444
##망	2445
넘겨	2446
공사	2447
처	2448
셋	2449
트렁크	2450
폐	2451
이내	2452
저택	2453
##렌	2454
##글	2455
뻗	2456
의	2457
유심히	2458
마라	2459
여기저기	2460
버	2461
쇼핑	2462
들여다	2463
##학교	2464
만남	2465
##디	2466
헬기	2467
합격	2468
장난감	2469
##갔	2470
##끔	2471
몰려	2472
##힌	2473
풀려	2474
수고	2475
역할	2476
적혀	2477
겨누	2478
반드시	2479
가끔	2480
힐	2481
나타난	2482
가격	2483
전기	2484
##뼉	2485
받아들인다	2486
찾아보	2487
활동	2488
법정	2489
입술	2490
##령	2491
두드리	2492
동굴	2493
올라온	2494
강의	2495
마침	2496
짧	2497
화살	2498
밝히	2499
추락	2500
꾸짖	2501
빌	2502
땀	2503
커다란	2504
배웅	2505
캐	2506
몬스터	2507
영업	2508
임무	2509
주인공	2510
진료	2511
좋아했	2512
계약서	2513
다짐	2514
뛰어가	2515
##즈	2516
홀	2517
##낸	2518
폭행	2519
옥	2520
최선	2521
부원	2522
맞은편	2523
드레스	2524
##킬	2525
아뇨	2526
열려	2527
솔직히	2528
후배	2529
그러고	2530
받아들이	2531
멈	2532
나쁘	2533
축구	2534
빗	2535
대문	2536
째	2537
돌아선	2538
험	2539
저렇게	2540
터널	2541
이동하	2542
다치	2543
한가	2544
성격	2545
내려오	2546
깡패	2547
친해	2548
심하	2549
뒤따라	2550
불쾌	2551
주고받	2552
##센터	2553
##객	2554
투자	2555
넋	2556
두려움	2557
브랜드	2558
빛	2559
될까	2560
호수	2561
따른다	2562
로봇	2563
댄다	2564
뒤쫓	2565
살펴보	2566
##놈	2567
##팔	2568
눈앞	2569
##태	2570
당했	2571
여인	2572
조용	2573
지난번	2574
옮겨	2575
대장	2576
달려와	2577
외국	2578
##슬	2579
정원	2580
깨어나	2581
##버렸	2582
특수	2583
시합	2584
##격	2585
직장	2586
##치기	2587
##탑	2588
영혼	2589
##둥	2590
정부	2591
##새	2592
모아	2593
인지	2594
경호원	2595
세워	2596
안쪽	2597
화해	2598
틀어	2599
떠날	2600
양복	2601
##나가	2602
회식	2603
시민	2604
기다렸	2605
##각	2606
대하	2607
출동	2608
그러나	2609
괴	2610
다녀오	2611
발생	2612
표시	2613
우선	2614
##가지	2615
맡기	2616
걸까	2617
은	2618
##난다	2619
통과	2620
##르	2621
소환	2622
별장	2623
유령	2624
평범	2625
풍경	2626
슬픈	2627
장치	2628
교육	2629
내기	2630
무사히	2631
##력	2632
산책	2633
영어	2634
들어간	2635
이에	2636
켠	2637
##값	2638
본부	2639
분명히	2640
고장	2641
연인	2642
음료수	2643
우승	2644
굴	2645
망가	2646
멋진	2647
밝힌다	2648
##양	2649
판매	2650
공주	2651
절벽	2652
장부	2653
투덜	2654
봉	2655
승리	2656
어이	2657
수첩	2658
드릴	2659
오자	2660
따뜻	2661
##괴	2662
중년	2663
완성	2664
둔	2665
바지	2666
경계	2667
잤	2668
리	2669
소설	2670
힘겹	2671
흘	2672
넘어가	2673
건너	2674
##져서	2675
작별	2676
20	2677
한동안	2678
그러니	2679
당시	2680
보관	2681
슬쩍	2682
##버	2683
이별	2684
부상	2685
가세	2686
수많	2687
##코	2688
저런	2689
몸싸움	2690
강력	2691
당분간	2692
검찰	2693
소중	2694
30	2695
맨날	2696
붙이	2697
꽉	2698
사주	2699
출장	2700
다닌다	2701
##옷	2702
##폰	2703
암	2704
속옷	2705
행성	2706
푹	2707
##른	2708
환하	2709
맞추	2710
들어갈	2711
예정	2712
올려놓	2713
그나저나	2714
기술	2715
빨간	2716
내놓	2717
주말	2718
착	2719
예쁜	2720
멋지	2721
8	2722
우주선	2723
접	2724
빨래	2725
부대	2726
우유	2727
보낼	2728
사회	2729
흥	2730
한다며	2731
##낀	2732
원망	2733
기어	2734
알아내	2735
응시	2736
지어	2737
전단지	2738
아쉬	2739
숙이	2740
웬일	2741
검색	2742
고급	2743
노크	2744
원장	2745
직업	2746
애써	2747
부수	2748
낀	2749
물론	2750
##없이	2751
변하	2752
관객	2753
할까	2754
붙여	2755
모를	2756
9	2757
찾아낸	2758
불가	2759
그래야	2760
##쇼	2761
축제	2762
뻔	2763
쫓아가	2764
재촉	2765
공간	2766
안타깝	2767
정상	2768
##먹이	2769
매장	2770
##X	2771
##밤	2772
천장	2773
작업실	2774
남기	2775
##싸움	2776
잡히	2777
돌아왔	2778
걷어	2779
##영	2780
실험	2781
##벌	2782
빨	2783
집어넣	2784
메일	2785
가져온	2786
##지가	2787
성적	2788
그러다	2789
방식	2790
완벽	2791
쏟아	2792
돌아갈	2793
##례	2794
욕실	2795
뒤늦	2796
표현	2797
운영	2798
주워	2799
싣	2800
괴롭히	2801
똑바로	2802
안부	2803
시비	2804
어딜	2805
##듣	2806
떨리	2807
잔다	2808
백화점	2809
~	2810
묵	2811
##34	2812
기뻐하	2813
##류	2814
변	2815
희망	2816
사냥	2817
내려다	2818
가리키	2819
##답	2820
괴롭	2821
맞춘다	2822
차라리	2823
명단	2824
##현	2825
쇠	2826
창가	2827
컵	2828
##킨	2829
외출	2830
다쳤	2831
##하나	2832
마음대로	2833
##만큼	2834
##희	2835
##롱	2836
여유	2837
벗어나	2838
과일	2839
할게요	2840
추격	2841
어때요	2842
조선	2843
죄수	2844
가도	2845
턱	2846
달아난	2847
훨씬	2848
없애	2849
가져오	2850
십	2851
놀랐	2852
가져와	2853
둘러	2854
##랜	2855
비켜	2856
멤버	2857
머리카락	2858
창피	2859
어둠	2860
연구	2861
대학교	2862
달려들	2863
흐른다	2864
버렸	2865
변명	2866
차린	2867
##회사	2868
모인	2869
우울	2870
어렸	2871
애원	2872
장비	2873
되게	2874
간식	2875
번갈	2876
회	2877
침실	2878
음료	2879
자연	2880
혼잣말	2881
들어갔	2882
놓치	2883
거짓	2884
주제	2885
여보세요	2886
합의	2887
터뜨린	2888
부끄러워	2889
여러분	2890
낼	2891
터	2892
불길	2893
함부로	2894
펜	2895
건달	2896
##란다	2897
안경	2898
당한	2899
현금	2900
최근	2901
유리창	2902
추궁	2903
설	2904
##엄	2905
가리	2906
불렀	2907
중간	2908
수리	2909
라이터	2910
달려오	2911
해야지	2912
##쿠	2913
수영장	2914
##능	2915
##뒀	2916
언덕	2917
잘라	2918
이대로	2919
닭	2920
##맨	2921
모른다	2922
간신히	2923
하얀	2924
장사	2925
붙인다	2926
난간	2927
줍	2928
소속	2929
교통사고	2930
커플	2931
친한	2932
##냥	2933
교복	2934
##어내	2935
술잔	2936
쓸쓸	2937
갈래	2938
##쟁이	2939
메	2940
아닌가	2941
의지	2942
강하	2943
빠져나가	2944
##룩	2945
서서히	2946
느껴	2947
어려운	2948
가까워	2949
섹스	2950
폭력	2951
안타까	2952
장례식장	2953
아무런	2954
디저트	2955
과자	2956
수영	2957
과정	2958
##빠	2959
남학생	2960
통장	2961
전원	2962
##기사	2963
봐도	2964
도구	2965
망치	2966
심문	2967
여직	2968
달래	2969
##찬	2970
눌러	2971
##숙	2972
즐기	2973
낡	2974
경우	2975
결	2976
베	2977
이놈	2978
조수	2979
추천	2980
대충	2981
고쳐	2982
샀	2983
제자	2984
운전석	2985
자라	2986
훔치	2987
짜	2988
동전	2989
눈길	2990
죄책감	2991
맺	2992
협상	2993
재회	2994
시동	2995
더욱	2996
뒤지	2997
반복	2998
과장	2999
참고	3000
부담	3001
상사	3002
힘없이	3003
터지	3004
아이스크림	3005
안쓰	3006
쥔	3007
발사	3008
식구	3009
무사	3010
멀쩡	3011
건너편	3012
객실	3013
내린	3014
엄	3015
화재	3016
허공	3017
담임	3018
##컥	3019
기억나	3020
끄덕이	3021
##말로	3022
돌아다니	3023
유혹	3024
멋	3025
찍힌	3026
생각나	3027
날짜	3028
후보	3029
##편	3030
그렇지만	3031
##단다	3032
방안	3033
해변	3034
텅	3035
고르	3036
저주	3037
뿌린	3038
##텐	3039
옆집	3040
놓친	3041
남긴	3042
정말로	3043
퇴	3044
휴대	3045
최	3046
이끌	3047
열차	3048
자세히	3049
아닙니까	3050
변호	3051
길거리	3052
수녀	3053
텔레비전	3054
목적	3055
얼음	3056
기침	3057
할게	3058
먼	3059
뒤통수	3060
늙	3061
탁자	3062
침묵	3063
꼬마	3064
비어	3065
휴가	3066
슈퍼	3067
쓰레기통	3068
참가	3069
홍	3070
꺾	3071
엎	3072
웃기	3073
투	3074
대출	3075
서재	3076
제거	3077
앞서	3078
예약	3079
##브	3080
수행	3081
##런	3082
헤	3083
##머	3084
만한	3085
대기실	3086
별일	3087
경비원	3088
우주	3089
외면	3090
##쪽	3091
치우	3092
서성	3093
질린	3094
성당	3095
형제	3096
##메	3097
X	3098
신입	3099
집무실	3100
##로운	3101
날리	3102
구역	3103
계신	3104
먹이	3105
훌륭	3106
활	3107
당	3108
올라타	3109
의문	3110
똑같이	3111
음성	3112
연락처	3113
##총	3114
지냈	3115
앨범	3116
휠체어	3117
움직인다	3118
개발	3119
권한다	3120
직전	3121
최대한	3122
비싼	3123
피자	3124
무표정	3125
동기	3126
의뢰	3127
늑대	3128
재빨리	3129
옷장	3130
커튼	3131
-	3132
일어난	3133
올라오	3134
회복	3135
비난	3136
쪼	3137
확실히	3138
급한	3139
중앙	3140
들으	3141
탑승	3142
##두고	3143
만져	3144
들어와서	3145
박차	3146
여관	3147
누군	3148
답장	3149
장례식	3150
자르	3151
취하	3152
일주	3153
약혼	3154
이길	3155
캐릭터	3156
놓아	3157
##얼	3158
원고	3159
마련	3160
장기	3161
머	3162
보통	3163
소매	3164
데려오	3165
##파티	3166
그린다	3167
고문	3168
펴	3169
무덤	3170
국	3171
알아본다	3172
##밥	3173
자격	3174
마요	3175
##에다	3176
나지	3177
지나쳐	3178
취재	3179
수건	3180
외계인	3181
부자	3182
뛰어들	3183
신음	3184
고모	3185
떠난	3186
헤어졌	3187
##름	3188
들키	3189
미치	3190
혐의	3191
사형	3192
옛	3193
툭	3194
##웃음	3195
비아	3196
날려	3197
뿌듯	3198
재수	3199
아버님	3200
재료	3201
온몸	3202
카	3203
아이디어	3204
단서	3205
흔들리	3206
밤새	3207
작동	3208
종족	3209
집단	3210
자백	3211
계세요	3212
광경	3213
온다고	3214
오랫동안	3215
엉덩이	3216
뱉	3217
출연	3218
##답니다	3219
들이닥	3220
악마	3221
마찬가지	3222
습격	3223
조종	3224
비닐	3225
돌려주	3226
귀족	3227
쇼	3228
써서	3229
어리둥절	3230
박사	3231
반찬	3232
수화기	3233
모시	3234
어떻	3235
떠났	3236
알아차	3237
고소	3238
양반	3239
복	3240
##어낸	3241
##환	3242
태	3243
화려	3244
바깥	3245
버티	3246
묶여	3247
소란	3248
장갑	3249
도망쳐	3250
냈	3251
둬	3252
엎드려	3253
꺼져	3254
날아가	3255
##묻	3256
부검	3257
헤드	3258
뵙	3259
살아남	3260
가볍	3261
갇혀	3262
복귀	3263
잡힌	3264
자수	3265
연설	3266
왠지	3267
##힐	3268
문서	3269
그리워	3270
마리	3271
연구소	3272
##짐	3273
버려	3274
민망	3275
##랬	3276
##송	3277
##끼	3278
가수	3279
코치	3280
대사	3281
아닐	3282
침입	3283
뒷좌석	3284
매우	3285
이웃	3286
누굴	3287
걸렸	3288
유일	3289
남겨	3290
목욕	3291
익숙	3292
뽀뽀	3293
승객	3294
귓	3295
실장	3296
엉	3297
어두워	3298
두려워	3299
꾼	3300
명문	3301
조직원	3302
무죄	3303
선거	3304
##궁	3305
어젯밤	3306
움켜	3307
##을지도	3308
폭파	3309
과	3310
##쳤	3311
티켓	3312
당당	3313
요새	3314
뛴다	3315
유치	3316
지우	3317
깎	3318
저쪽	3319
어땠	3320
열린다	3321
놀리	3322
완전	3323
##풍	3324
##십니다	3325
비장	3326
호감	3327
영지	3328
본사	3329
마셨	3330
된다는	3331
쓸데없	3332
각	3333
굳이	3334
정확	3335
##내린	3336
다섯	3337
낯선	3338
그린	3339
발걸음	3340
석	3341
갑작스러운	3342
넘긴	3343
퍼	3344
이겨	3345
되찾	3346
센터	3347
파출소	3348
그분	3349
경주	3350
요	3351
##강	3352
또한	3353
친하	3354
손수건	3355
문신	3356
썩	3357
##막	3358
한데	3359
밧줄	3360
밝혀	3361
세탁	3362
##크	3363
전학	3364
펼쳐	3365
실려	3366
이전	3367
똥	3368
구급차	3369
강제	3370
사연	3371
##37	3372
조폭	3373
신분증	3374
대꾸	3375
##잖	3376
언젠가	3377
긁	3378
분장	3379
승진	3380
파트너	3381
골프	3382
충분히	3383
##겼	3384
그려	3385
전체	3386
##어놓	3387
퇴원	3388
언	3389
질려	3390
헤어	3391
일상	3392
살리	3393
변한	3394
모델	3395
##놀이	3396
악몽	3397
낸	3398
아예	3399
일으켜	3400
달리기	3401
상의	3402
교무	3403
가위	3404
어느새	3405
택배	3406
체육관	3407
슬픔	3408
잔소리	3409
싸늘	3410
황	3411
안정	3412
내버려	3413
뒤쪽	3414
해라	3415
뒤진	3416
아세요	3417
교도	3418
대접	3419
평화	3420
닿	3421
잠자리	3422
이발	3423
##해졌	3424
모래	3425
활짝	3426
갇힌	3427
내려다보	3428
자신감	3429
##사랑	3430
수련	3431
짚	3432
기획	3433
스타일	3434
내려와	3435
찾아내	3436
증명	3437
##탁	3438
경악	3439
응급실	3440
약간	3441
##티	3442
왔었	3443
만지작	3444
자책	3445
##량	3446
간단	3447
의도	3448
##렴	3449
##겁	3450
찔	3451
주의	3452
암살	3453
보고서	3454
감기	3455
봐서	3456
##재	3457
눈치채	3458
하인	3459
물고기	3460
##출	3461
핀	3462
꽃다발	3463
돌아올	3464
체	3465
마이크	3466
끝낸	3467
##필	3468
영웅	3469
보험	3470
바쁜	3471
꾸민	3472
아지	3473
##겐	3474
체크	3475
합	3476
이쁘	3477
##꾸	3478
가르치	3479
내뱉	3480
와요	3481
마스크	3482
##악	3483
반대편	3484
##덜	3485
고른	3486
피고인	3487
절대로	3488
오세	3489
으	3490
굴러	3491
내보내	3492
숫자	3493
출신	3494
휘두	3495
우물	3496
강한	3497
웅	3498
주식	3499
지지	3500
##풀이	3501
빙	3502
이유로	3503
베란다	3504
충분	3505
외모	3506
갈등	3507
마실	3508
신분	3509
테러	3510
넘어지	3511
내지	3512
기름	3513
기쁘	3514
##업자	3515
측	3516
편안	3517
##수록	3518
농장	3519
관찰	3520
뿌리치	3521
사서	3522
보스	3523
안다	3524
##련	3525
메뉴	3526
종일	3527
혀	3528
글쎄	3529
청혼	3530
번쩍	3531
채워	3532
##머리	3533
박수	3534
중전	3535
짝	3536
고치	3537
글씨	3538
부대원	3539
울려	3540
한마디	3541
유학	3542
착한	3543
머릿속	3544
멍청	3545
협조	3546
헬멧	3547
##갑	3548
불빛	3549
곳곳	3550
시끄럽	3551
함	3552
변화	3553
흙	3554
흰	3555
스킬	3556
이루	3557
감자	3558
##썽	3559
인부	3560
불꽃	3561
나빠	3562
에이	3563
진입	3564
국민	3565
예뻐	3566
아쉽	3567
선언	3568
아무튼	3569
탕	3570
차갑	3571
순식간	3572
틀	3573
보였	3574
기숙사	3575
좁	3576
화분	3577
시내	3578
지친	3579
들여다보	3580
제품	3581
가로막	3582
동창	3583
자국	3584
열린	3585
녹	3586
맘대로	3587
상무	3588
##가방	3589
층	3590
내보	3591
금지	3592
냉정	3593
보시	3594
날씨	3595
금액	3596
##것	3597
일으키	3598
전생	3599
가린	3600
뉴욕	3601
드러낸다	3602
족	3603
##려서	3604
스튜디오	3605
통로	3606
학부모	3607
##툰	3608
쫓기	3609
어머	3610
이긴	3611
맡긴	3612
벗겨	3613
##호흡	3614
덕	3615
교	3616
설레	3617
상품	3618
어떨까	3619
더듬	3620
서점	3621
##극	3622
흘러	3623
합류	3624
감히	3625
어머님	3626
콩	3627
##혈	3628
통제	3629
유지	3630
##광	3631
싹	3632
미팅	3633
아름다운	3634
강당	3635
지문	3636
희생	3637
비교	3638
가져왔	3639
소개팅	3640
염	3641
깜빡	3642
건드리	3643
핑계	3644
##워하	3645
따지	3646
흥미	3647
##첩	3648
약국	3649
##토	3650
골라	3651
준다고	3652
장식	3653
일으킨다	3654
군사	3655
복장	3656
내게	3657
불평	3658
선글라스	3659
부러워	3660
세자	3661
수정	3662
방어	3663
깨진	3664
흑인	3665
들려오	3666
재산	3667
계략	3668
##옥	3669
그림자	3670
드러난다	3671
장군	3672
##끈	3673
##장치	3674
핏	3675
##귄	3676
노리	3677
게다가	3678
잃어버린	3679
나고	3680
참으	3681
줘야	3682
부러	3683
끈	3684
회원	3685
묶인	3686
부스	3687
싸웠	3688
보물	3689
매력	3690
휘	3691
생명	3692
대결	3693
별거	3694
가스	3695
휴지	3696
살인자	3697
사라져	3698
안방	3699
소송	3700
갈까	3701
구했	3702
몽	3703
##그리	3704
부산	3705
입학	3706
월급	3707
항의	3708
생선	3709
무심	3710
대리	3711
##급	3712
탐	3713
떨어졌	3714
채운	3715
힘내	3716
얻어	3717
칸	3718
연회	3719
진짜로	3720
숙여	3721
실랑이	3722
##싼	3723
들려준다	3724
사물	3725
지적	3726
해적	3727
촬영장	3728
우편물	3729
비틀거리	3730
그룹	3731
수학	3732
탁	3733
분석	3734
어쩐	3735
잠입	3736
법원	3737
팬티	3738
치킨	3739
깨끗	3740
##쿨	3741
##아치	3742
확보	3743
가사	3744
화내	3745
포장	3746
대치	3747
구출	3748
시원	3749
훑	3750
도장	3751
매달려	3752
될지	3753
튀	3754
와이프	3755
쌍둥이	3756
국장	3757
전과	3758
농구	3759
수면	3760
교환	3761
##버릴	3762
팔짱	3763
##테이	3764
교사	3765
가로	3766
울부짖	3767
정신없이	3768
유치원	3769
테스트	3770
##곡	3771
종교	3772
바란다	3773
##이도	3774
마지못해	3775
끌어	3776
소장	3777
꺼지	3778
싼	3779
인연	3780
쑥	3781
12	3782
오랜	3783
대비	3784
값	3785
##됩	3786
향수	3787
처한	3788
일어났	3789
검술	3790
고용	3791
풀리	3792
색	3793
프	3794
기념	3795
어쨌든	3796
대형	3797
똑똑	3798
##쇠	3799
자른	3800
특공대	3801
경호	3802
귀가	3803
조명	3804
화나	3805
오후	3806
건드	3807
액자	3808
터트	3809
하녀	3810
친절	3811
몰라서	3812
##방송	3813
빌딩	3814
뒤져	3815
서명	3816
왕자	3817
목표	3818
##쓰	3819
생겨서	3820
춤추	3821
골목길	3822
대피	3823
부동산	3824
저장	3825
숙	3826
##놔	3827
예의	3828
바위	3829
범죄자	3830
여권	3831
어려워	3832
스트레스	3833
미용실	3834
둔다	3835
수감	3836
축	3837
##덕	3838
아파서	3839
체육	3840
총격	3841
변한다	3842
##버려	3843
귀엽	3844
##탈	3845
동작	3846
##긋	3847
아이고	3848
캐리어	3849
버린	3850
빠	3851
끼워	3852
격	3853
해치	3854
간호	3855
했으니	3856
일자리	3857
##따	3858
단어	3859
깨달	3860
분주	3861
점수	3862
개의	3863
대상	3864
다녔	3865
술병	3866
영원히	3867
성인	3868
##립	3869
시킨	3870
실로	3871
신세	3872
안다고	3873
50	3874
여동생	3875
제지	3876
낙서	3877
아닌가요	3878
추가	3879
지방	3880
##끗	3881
이리저리	3882
갔었	3883
파리	3884
행	3885
규칙	3886
입양	3887
현상	3888
단지	3889
##조사	3890
광	3891
계좌	3892
불구	3893
기관	3894
세금	3895
수군	3896
사채	3897
수표	3898
늘어놓	3899
떠들	3900
##맞	3901
어쩌다	3902
안주	3903
북	3904
태어나	3905
정식	3906
이성	3907
북한	3908
붕대	3909
육	3910
당부	3911
댁	3912
프로	3913
뇌	3914
##로워	3915
연구실	3916
적응	3917
맞선	3918
부른	3919
##변	3920
불륜	3921
목격자	3922
감추	3923
기간	3924
넓	3925
기지	3926
이것저것	3927
##혼	3928
힘껏	3929
누명	3930
털어	3931
허탈	3932
포스터	3933
깔	3934
등교	3935
모욕	3936
가까스로	3937
일기	3938
손톱	3939
고등학생	3940
승용차	3941
평가	3942
줄이	3943
곰	3944
맞서	3945
터진	3946
향	3947
탑	3948
팔찌	3949
나아	3950
수습	3951
저지	3952
바짝	3953
바뀐	3954
설거지	3955
##빙	3956
넥타이	3957
벗어난	3958
접시	3959
나타났	3960
외치	3961
줘요	3962
난처	3963
##혔	3964
청년	3965
꼼짝	3966
알람	3967
남긴다	3968
조카	3969
구할	3970
다신	3971
##왕	3972
브리핑	3973
아닌지	3974
자존심	3975
기적	3976
헤매	3977
흠	3978
겨울	3979
경기장	3980
당해	3981
취직	3982
##이어	3983
발자국	3984
지쳐	3985
굽	3986
##삿	3987
돼지	3988
##굴	3989
압박	3990
후려	3991
뻔한	3992
다독	3993
발목	3994
취급	3995
저러	3996
시나리오	3997
무안	3998
비친	3999
링	4000
제출	4001
파괴	4002
취한다	4003
공연장	4004
편집	4005
못해서	4006
언론	4007
생긴다	4008
아닐까	4009
진작	4010
덤	4011
일그	4012
차이	4013
즐긴다	4014
##봐도	4015
신혼	4016
푸	4017
바퀴	4018
줘서	4019
부적	4020
땜	4021
일부	4022
달아나	4023
그만둔	4024
15	4025
보조	4026
##유	4027
초콜릿	4028
몰랐다	4029
##35	4030
다투	4031
환경	4032
묵묵히	4033
희	4034
살인범	4035
뚜껑	4036
띄	4037
사체	4038
##룡	4039
기다릴	4040
사제	4041
걸린다	4042
변해	4043
드릴게요	4044
씹	4045
##36	4046
비롯	4047
##스레	4048
뜬	4049
통하	4050
지나치	4051
여길	4052
##죄	4053
곱	4054
이종	4055
종업원	4056
"	4057
상대방	4058
봉지	4059
법안	4060
킬러	4061
뛰어든	4062
생각난다	4063
시위	4064
올라와	4065
##켰	4066
쓰인	4067
중단	4068
시끄	4069
간판	4070
중심	4071
내쫓	4072
이걸로	4073
흑	4074
끝날	4075
강의실	4076
애틋	4077
웬	4078
제정신	4079
겉	4080
재능	4081
히어로	4082
##밭	4083
빠졌	4084
제보	4085
지워	4086
윗	4087
슬프	4088
##칼	4089
잠복	4090
욕심	4091
단장	4092
##아지	4093
따라서	4094
오피스텔	4095
채우	4096
외부	4097
정신병	4098
찌르	4099
물음	4100
지붕	4101
연구원	4102
주기	4103
##깃	4104
빼내	4105
물으	4106
이제야	4107
막힌	4108
백성	4109
부를	4110
##꼬	4111
카운터	4112
차마	4113
끔찍	4114
자물쇠	4115
##킹	4116
역사	4117
전시회	4118
혈	4119
악당	4120
가난	4121
막혀	4122
##싸	4123
어린이	4124
미군	4125
보여요	4126
밀려	4127
##북	4128
알아듣	4129
##너	4130
엮	4131
쭉	4132
위층	4133
환상	4134
불타	4135
덩치	4136
악보	4137
##별	4138
##와서	4139
##어리	4140
꿈속	4141
지목	4142
손바닥	4143
정문	4144
모으	4145
구매	4146
치마	4147
캠핑	4148
##보기	4149
부딪히	4150
##오른	4151
고마움	4152
##공원	4153
B	4154
커	4155
쏟	4156
연신	4157
고집	4158
##턴	4159
쭈	4160
걸으며	4161
##49	4162
돌보	4163
일제히	4164
송	4165
추측	4166
버릴	4167
돌봐	4168
떠오른다	4169
하필	4170
처지	4171
복사	4172
상단	4173
캔	4174
필	4175
달린	4176
인원	4177
먹여	4178
원인	4179
다그	4180
가까운	4181
출소	4182
정치	4183
프로젝트	4184
주무	4185
저거	4186
물어볼	4187
허겁지겁	4188
조심스레	4189
단원	4190
담아	4191
사항	4192
믿기	4193
괴로운	4194
매번	4195
신원	4196
얘길	4197
##지기	4198
언제나	4199
낙	4200
안타까운	4201
가르친다	4202
##팅	4203
도울	4204
봐라	4205
고마웠	4206
탔	4207
이어폰	4208
갱	4209
할래	4210
휘두르	4211
차장	4212
순찰	4213
##40	4214
꾸며	4215
말투	4216
박살	4217
도주	4218
첫눈	4219
사방	4220
캠프	4221
잡아당	4222
읊	4223
호흡	4224
비틀	4225
점검	4226
태연	4227
##쥔	4228
따위	4229
사격	4230
바빠	4231
경위	4232
어쩌면	4233
심사	4234
속삭	4235
도끼	4236
구입	4237
목사	4238
휘청	4239
멘	4240
##그러	4241
변했	4242
진동	4243
쌍	4244
약물	4245
차원	4246
그런가	4247
당구	4248
드세요	4249
안절부절	4250
미사일	4251
떡	4252
끌려가	4253
풀린	4254
잇	4255
쏟아지	4256
여왕	4257
권유	4258
뺑	4259
단추	4260
시청	4261
오줌	4262
들러	4263
신경질	4264
머물	4265
벗기	4266
놨	4267
바빠서	4268
망원경	4269
휙	4270
벌어지	4271
초등	4272
음식점	4273
핸들	4274
특이	4275
생길	4276
저놈	4277
들여	4278
뻔뻔	4279
옳	4280
작년	4281
직감	4282
돌진	4283
천둥	4284
짜장면	4285
쳤	4286
놀이터	4287
##생활	4288
책임지	4289
보호자	4290
##딴	4291
지났	4292
초상화	4293
경찰관	4294
맡겨	4295
어린아이	4296
자체	4297
##돌	4298
안겨	4299
이사장	4300
중학교	4301
비리	4302
유인	4303
불리	4304
머뭇거리	4305
흉내	4306
행인	4307
낚시	4308
조리	4309
좌절	4310
높이	4311
스쳐	4312
깨지	4313
아주머니	4314
말려	4315
항구	4316
내쉬	4317
녹화	4318
범행	4319
할까요	4320
웨이	4321
하긴	4322
뒷문	4323
볼일	4324
제작	4325
마술	4326
각오	4327
느낀	4328
계셨	4329
바꾼다	4330
매달린	4331
이미지	4332
마나	4333
전국	4334
헛소리	4335
지나친	4336
휴게실	4337
살아가	4338
유언	4339
다닐	4340
담당자	4341
##빈	4342
아끼	4343
그러다가	4344
쌓	4345
발신	4346
달러	4347
자극	4348
하이	4349
바이올린	4350
글자	4351
변기	4352
상한	4353
곧바로	4354
입금	4355
성폭행	4356
##떨	4357
격려	4358
무서워서	4359
끼어들	4360
희미	4361
도우	4362
소지	4363
대부분	4364
결투	4365
뺀	4366
##워서	4367
보상	4368
타자	4369
좋아할	4370
지점	4371
뇌물	4372
짐작	4373
치르	4374
저격	4375
길가	4376
필름	4377
했잖아요	4378
##료	4379
##슈	4380
미술	4381
기둥	4382
올해	4383
시켰	4384
내놔	4385
날아오	4386
##루스	4387
##땐	4388
정확히	4389
내다	4390
치워	4391
과제	4392
집착	4393
##어질	4394
##떠	4395
놔두	4396
제시	4397
강가	4398
PD	4399
꾸미	4400
앰	4401
왼쪽	4402
남녀	4403
횡단	4404
워낙	4405
의미심장	4406
몰라도	4407
쌓여	4408
##내려	4409
최종	4410
싱크	4411
삽	4412
강해	4413
심정	4414
및	4415
##틀	4416
언급	4417
카트	4418
짠	4419
##정보	4420
의상	4421
유골	4422
포함	4423
키워	4424
##황	4425
터져	4426
강간	4427
만화책	4428
김치	4429
차가운	4430
뜨거운	4431
진정한	4432
가져온다	4433
마취	4434
서비스	4435
싸워	4436
쓰인다	4437
극단	4438
스승	4439
스파이	4440
자금	4441
당일	4442
##들인	4443
애쓴	4444
아님	4445
객	4446
냉동	4447
과학	4448
내내	4449
촌	4450
유산	4451
문구	4452
관해	4453
명품	4454
숙제	4455
비용	4456
에	4457
누워서	4458
뭡니까	4459
사이트	4460
##케	4461
촛불	4462
정비	4463
뒷걸음질	4464
한강	4465
##눕	4466
한두	4467
##러진다	4468
햄버거	4469
흉	4470
로펌	4471
필사	4472
발길	4473
임	4474
##링	4475
짝사랑	4476
가맹점	4477
공감	4478
차지	4479
고인	4480
수사관	4481
도전	4482
쥐어	4483
시설	4484
##참	4485
손잡이	4486
조만간	4487
떠오르	4488
요란	4489
빌라	4490
쓰이	4491
컸	4492
자가	4493
통보	4494
##졸	4495
드럼	4496
정장	4497
갑	4498
##착	4499
응급	4500
연예인	4501
간다는	4502
제외	4503
단순	4504
와중	4505
대립	4506
감당	4507
임시	4508
보트	4509
연관	4510
상인	4511
##뜨린	4512
과외	4513
투표	4514
다행히	4515
복면	4516
마신	4517
배웠	4518
물품	4519
잡아먹	4520
##홀	4521
100	4522
##젓	4523
전철	4524
밭	4525
마누라	4526
욕조	4527
졌	4528
인도	4529
##룸	4530
움찔	4531
가진다	4532
거친	4533
사탕	4534
##트리	4535
유서	4536
구속	4537
성장	4538
뒤편	4539
얹	4540
동상	4541
케이스	4542
반항	4543
스태프	4544
지루	4545
무당	4546
##러지	4547
##딱	4548
##바이	4549
방아	4550
##춤	4551
그치	4552
저지른	4553
게이	4554
꿀	4555
힘드	4556
살라	4557
심해	4558
콧	4559
책장	4560
호위	4561
취향	4562
정지	4563
침착	4564
비운	4565
무장	4566
사원	4567
슬퍼하	4568
올린	4569
##든가	4570
##으나	4571
##41	4572
수십	4573
써야	4574
묘지	4575
##냈	4576
용병	4577
함정	4578
신상	4579
무척	4580
다양	4581
얼어붙	4582
시집	4583
##앉	4584
11	4585
학과	4586
충돌	4587
영주	4588
각각	4589
의무	4590
지낼	4591
긴급	4592
##클	4593
스케줄	4594
굉장히	4595
##추	4596
우연	4597
닫히	4598
외국인	4599
순서	4600
서장	4601
수다	4602
쾅	4603
장미	4604
##다리	4605
난동	4606
빌린	4607
존경	4608
재미	4609
텐데요	4610
플래시	4611
##뜨리	4612
##부로	4613
공무원	4614
지킬	4615
##t	4616
오락	4617
광장	4618
지휘	4619
경매	4620
폭	4621
괴한	4622
##v	4623
엎드	4624
당혹	4625
호기심	4626
수배	4627
적극	4628
의뢰인	4629
##끝	4630
심한	4631
찡	4632
공범	4633
무너지	4634
##독	4635
시스템	4636
통신	4637
공방	4638
신문사	4639
물리	4640
여고생	4641
##알	4642
예민	4643
기업	4644
바래	4645
찌푸	4646
관계자	4647
착하	4648
느껴진다	4649
양손	4650
울컥	4651
진열	4652
공기	4653
호출	4654
어려울	4655
##퍼	4656
감지	4657
칠판	4658
사막	4659
##럼	4660
무거운	4661
효과	4662
파이프	4663
모금	4664
네놈	4665
은신	4666
월	4667
향한	4668
A	4669
##아보	4670
헤어져	4671
원한다	4672
거란	4673
괘	4674
제주도	4675
목록	4676
앞두	4677
마감	4678
하도	4679
치매	4680
##언	4681
묘한	4682
와야	4683
인민군	4684
펼친다	4685
움직임	4686
고발	4687
아름답	4688
바르	4689
재단	4690
지낸	4691
##소니	4692
포위	4693
##후	4694
해체	4695
취업	4696
##슨	4697
셔츠	4698
가주	4699
재미없	4700
부위	4701
콘서트	4702
스토	4703
다녀왔	4704
가구	4705
##닛	4706
어울려	4707
봅니다	4708
정당	4709
접수	4710
간부	4711
##누	4712
변신	4713
전투기	4714
##꽃	4715
애정	4716
적당히	4717
수신	4718
이틀	4719
장이	4720
출판사	4721
##러진	4722
실내	4723
대한민국	4724
배신감	4725
피로	4726
경쟁	4727
가치	4728
타이	4729
특히	4730
타임	4731
수송	4732
##떨어진	4733
##찰	4734
영정	4735
긍정	4736
지각	4737
실은	4738
고래	4739
난다고	4740
지옥	4741
패거리	4742
유니폼	4743
당겨	4744
토로	4745
종료	4746
##붙	4747
##버스	4748
전환	4749
계집	4750
쳐들어	4751
저리	4752
노래방	4753
고정	4754
알아볼	4755
지폐	4756
편집장	4757
음반	4758
첫날	4759
머뭇	4760
리모컨	4761
cc	4762
넘어간	4763
신체	4764
뭉치	4765
강요	4766
범	4767
싸울	4768
다루	4769
출입	4770
핵	4771
불행	4772
논의	4773
질주	4774
##득	4775
심부름	4776
시야	4777
자판기	4778
다물	4779
가출	4780
구타	4781
아랑곳	4782
약해	4783
일기장	4784
만류	4785
짖	4786
판결	4787
깨우	4788
기울	4789
고함	4790
잔인	4791
걸릴	4792
두목	4793
김밥	4794
불어	4795
지랄	4796
친척	4797
##큼	4798
삭제	4799
눈가	4800
비싸	4801
수준	4802
흘러나	4803
재생	4804
끝난다	4805
쓰라	4806
##겨워	4807
혼인	4808
샌드위치	4809
발레	4810
조정	4811
##덩이	4812
##박스	4813
코너	4814
유품	4815
굶	4816
노숙	4817
점장	4818
때렸	4819
지프	4820
알아냈	4821
봉사	4822
매출	4823
다쳐	4824
튼	4825
영화관	4826
발라	4827
##틈	4828
솜씨	4829
관중	4830
모이	4831
전문	4832
##고리	4833
원한	4834
익	4835
철수	4836
트	4837
버려진	4838
##운데	4839
예감	4840
심판	4841
방울	4842
의료	4843
빌리	4844
##런스	4845
벌레	4846
실례	4847
정직	4848
여태	4849
질러	4850
더러운	4851
실린	4852
잘난	4853
보인다고	4854
툭툭	4855
어떤지	4856
회피	4857
##뷸	4858
인조	4859
##서야	4860
공동	4861
기쁨	4862
지배인	4863
가질	4864
요괴	4865
동일	4866
인수	4867
거둔	4868
텐트	4869
구치소	4870
바꿀	4871
부딪혀	4872
스킨	4873
시녀	4874
번개	4875
태블릿	4876
운동화	4877
디자인	4878
선고	4879
편해	4880
허가	4881
##밀	4882
##시피	4883
뒤집	4884
내면	4885
닫힌	4886
##승	4887
섭섭	4888
복지	4889
쉬운	4890
오픈	4891
##사장	4892
##플	4893
정황	4894
애쓰	4895
구겨	4896
한대	4897
옆구리	4898
콘	4899
어르신	4900
산소	4901
다시금	4902
##쉬	4903
유도	4904
일어날	4905
절규	4906
휴식	4907
짐승	4908
아나	4909
밝혀진	4910
도련	4911
냉	4912
요양원	4913
반성	4914
집사	4915
주유소	4916
##규	4917
정하	4918
기쁜	4919
배려	4920
제목	4921
무도	4922
찔러	4923
이봐	4924
대책	4925
무례	4926
악기	4927
창녀	4928
라	4929
신하	4930
깔끔	4931
경찰청	4932
기습	4933
일반	4934
##벽	4935
서커스	4936
드러내	4937
게시판	4938
외롭	4939
치켜	4940
곤	4941
##쓴	4942
그제야	4943
지인	4944
백작	4945
존	4946
권	4947
몸부림	4948
공식	4949
소용없	4950
##감독	4951
뗀	4952
심심	4953
정류장	4954
저항	4955
박힌	4956
걸까요	4957
##뜯	4958
납	4959
연못	4960
보여서	4961
어리	4962
끌어내	4963
끊긴	4964
변경	4965
면도	4966
욕설	4967
발령	4968
재개	4969
시기	4970
##곳	4971
##핀	4972
마침내	4973
전날	4974
총기	4975
공유	4976
나요	4977
##떡	4978
도발	4979
보드	4980
행운	4981
더럽	4982
당기	4983
마녀	4984
처벌	4985
감격	4986
##조각	4987
복권	4988
얼떨	4989
근	4990
던진	4991
부럽	4992
잡혔	4993
배운	4994
스피커	4995
##프로	4996
허벅지	4997
최악	4998
고작	4999
차려입	5000
다듬	5001
##훈	5002
평상	5003
계란	5004
사모님	5005
조치	5006
##숍	5007
댄스	5008
##칸	5009
나름	5010
무력	5011
목도	5012
반말	5013
달아	5014
애초	5015
그라	5016
##머니	5017
가졌	5018
카세	5019
##욕	5020
퍼진	5021
##시계	5022
히	5023
산속	5024
하룻밤	5025
펜싱	5026
증상	5027
의논	5028
모여서	5029
섞	5030
파도	5031
행사장	5032
마음먹	5033
##무소	5034
온다는	5035
왼손	5036
웨딩	5037
자동	5038
피부	5039
관리자	5040
빵집	5041
##림	5042
영향	5043
붓	5044
토하	5045
윤	5046
처박	5047
스포츠	5048
수긍	5049
화장품	5050
들판	5051
관장	5052
반주	5053
장교	5054
정해	5055
우체	5056
취했	5057
쉴	5058
조회	5059
추리	5060
건데요	5061
영문	5062
상어	5063
모른다는	5064
댓글	5065
코피	5066
전경	5067
##자실	5068
검토	5069
달콤	5070
나눈	5071
잠그	5072
올려다보	5073
맥	5074
##춘	5075
저게	5076
양말	5077
승낙	5078
된다며	5079
못한다고	5080
##쓱	5081
뒀	5082
##살이	5083
##옵니다	5084
흉기	5085
계	5086
한다면	5087
괴롭힘	5088
궁전	5089
차기	5090
기색	5091
그걸로	5092
숟가락	5093
출구	5094
생겨	5095
조롱	5096
여보	5097
스위치	5098
쌀	5099
황제	5100
티브이	5101
미인	5102
##움	5103
##랄	5104
실제로	5105
첩	5106
쫓겨난	5107
정면	5108
헐	5109
해명	5110
능숙	5111
피워	5112
##아가	5113
사태	5114
블랙박스	5115
정인	5116
압	5117
벌어진다	5118
##병원	5119
합니까	5120
프랑스	5121
심리	5122
##딩	5123
버럭	5124
이곳저곳	5125
가로질러	5126
배고프	5127
##잠	5128
##틴	5129
발각	5130
태어난	5131
들어올	5132
통역	5133
권력	5134
깊이	5135
야외	5136
퍼붓	5137
쫓아내	5138
판다	5139
이겼	5140
영재	5141
##접	5142
사표	5143
오두막	5144
전문가	5145
바랍니다	5146
사직	5147
먼지	5148
굿	5149
마중	5150
빈자리	5151
너무나	5152
통증	5153
흘러나오	5154
마법사	5155
##부대	5156
하소연	5157
장례	5158
억	5159
소포	5160
튕겨	5161
무너진	5162
껌	5163
한눈	5164
고아원	5165
극	5166
건설	5167
해준	5168
##39	5169
훌쩍	5170
부통령	5171
영장	5172
##관계	5173
움직여	5174
##씸	5175
착용	5176
##대기	5177
제공	5178
대학생	5179
글쎄요	5180
깁	5181
##기구	5182
바른	5183
감상	5184
##션	5185
쌓인	5186
##뚱	5187
대박	5188
감춘	5189
천사	5190
발언	5191
잃어버렸	5192
##써	5193
##풀	5194
소변	5195
발작	5196
쿵	5197
입가	5198
상해	5199
은퇴	5200
월세	5201
도저히	5202
착륙	5203
피디	5204
미술관	5205
서신	5206
마저	5207
열정	5208
과연	5209
자루	5210
구한	5211
상기	5212
아비	5213
##구역	5214
USB	5215
은혜	5216
##촌	5217
트라우마	5218
마루	5219
성질	5220
적도	5221
징계	5222
임원	5223
수용소	5224
##손	5225
각종	5226
주저	5227
강물	5228
어린애	5229
##취	5230
젓가락	5231
전력	5232
정의	5233
보일	5234
FBI	5235
패배	5236
검거	5237
가져갔	5238
계곡	5239
센	5240
볼까	5241
무공	5242
목욕탕	5243
난장	5244
아나운서	5245
##때	5246
##러운	5247
생존자	5248
산하	5249
계셔	5250
달라진	5251
우편	5252
되돌아	5253
간절	5254
풍선	5255
채널	5256
시무	5257
여사	5258
양쪽	5259
각성	5260
미련	5261
호랑이	5262
합시다	5263
쓰러졌	5264
믿음	5265
커피숍	5266
마디	5267
##둥이	5268
주자	5269
스낵	5270
##못	5271
만만	5272
대감	5273
괜한	5274
채소	5275
지켜야	5276
부여	5277
##활	5278
손질	5279
유부	5280
신랑	5281
기소	5282
출석	5283
해킹	5284
스타	5285
##여행	5286
##혜	5287
계기	5288
타박	5289
모셔	5290
리조트	5291
암호	5292
사살	5293
차분	5294
클	5295
가라앉	5296
그려진	5297
뼈	5298
##부인	5299
기생	5300
내역	5301
소스	5302
얌전	5303
리스트	5304
포장마차	5305
정색	5306
어딘지	5307
부끄럽	5308
분리	5309
오다	5310
##나무	5311
선장	5312
벽면	5313
신뢰	5314
펜션	5315
산다고	5316
거두	5317
한창	5318
담요	5319
차단	5320
바구니	5321
아쉬운	5322
통해서	5323
여름	5324
갑시다	5325
영감	5326
점차	5327
곧장	5328
화제	5329
40	5330
전송	5331
접속	5332
심상	5333
뱀	5334
오전	5335
제사	5336
나니	5337
뿜	5338
밥상	5339
영국	5340
그런지	5341
삼키	5342
시늉	5343
얘긴	5344
양보	5345
볼게요	5346
##오르	5347
##벼락	5348
세차	5349
##보내	5350
##뻔	5351
수족관	5352
위조	5353
공작	5354
권리	5355
##납	5356
떨어질	5357
출산	5358
원피스	5359
운전기사	5360
떨어뜨리	5361
갸웃	5362
인쇄	5363
최면	5364
##윈	5365
학도	5366
CD	5367
##사람	5368
실행	5369
포즈	5370
수줍	5371
커지	5372
전이	5373
들으면	5374
식량	5375
인터	5376
우르르	5377
아래층	5378
변태	5379
어미	5380
전시	5381
잽	5382
아수라	5383
##좋	5384
재벌	5385
견디	5386
눈시울	5387
누운	5388
겸	5389
뿌려	5390
비우	5391
특별히	5392
##항	5393
염려	5394
더러	5395
나이트	5396
두려워하	5397
채용	5398
##넘	5399
브로커	5400
엄청나	5401
##뚝	5402
두들겨	5403
시대	5404
복직	5405
처치	5406
혹시나	5407
방청	5408
전사	5409
귀걸이	5410
씌워	5411
천재	5412
그제서야	5413
무서웠	5414
##흔	5415
불러서	5416
느꼈	5417
##쭈	5418
배터리	5419
도망쳤	5420
마마	5421
##직원	5422
팔려	5423
술자리	5424
온갖	5425
##자루	5426
거래처	5427
토론	5428
오른쪽	5429
걸터앉	5430
스케치	5431
더미	5432
옷차림	5433
물러	5434
분수	5435
##폭	5436
환호성	5437
어째서	5438
잃어버	5439
##자료	5440
책임질	5441
즐거웠	5442
몹시	5443
##응	5444
펼치	5445
일본인	5446
배후	5447
찾아갔	5448
무료	5449
이벤트	5450
호스	5451
구급	5452
갈아	5453
다녀온	5454
슬	5455
동물원	5456
류	5457
유모	5458
하나하나	5459
움켜쥐	5460
반가운	5461
재킷	5462
우두	5463
여긴다	5464
남성	5465
유전자	5466
마라톤	5467
눈동자	5468
두렵	5469
내려서	5470
##카메라	5471
후계자	5472
지하철역	5473
외우	5474
레	5475
막히	5476
조르	5477
데려왔	5478
발버둥	5479
##덤	5480
##리에	5481
당할	5482
한탄	5483
디	5484
##찍	5485
동거	5486
에너지	5487
연장	5488
접촉	5489
대응	5490
사다리	5491
새롭	5492
결론	5493
검찰청	5494
대포	5495
손해	5496
해독	5497
##다닥	5498
마사지	5499
저하	5500
라고	5501
한복	5502
외계	5503
체념	5504
##삐	5505
배워	5506
##싱	5507
제게	5508
차도	5509
##숫	5510
구덩이	5511
노출	5512
##38	5513
편한	5514
벌어진	5515
모자라	5516
파견	5517
제의	5518
나자	5519
가운	5520
주목	5521
기밀	5522
감금	5523
잊어버	5524
구명	5525
유유	5526
책임자	5527
알림	5528
본격	5529
영광	5530
배경	5531
좌석	5532
##사항	5533
지불	5534
단상	5535
징	5536
야근	5537
##빤	5538
이른	5539
온통	5540
방학	5541
동정	5542
퍼지	5543
호응	5544
##러워서	5545
##르르	5546
명예	5547
화상	5548
절박	5549
단단히	5550
선두	5551
매달	5552
그네	5553
공사장	5554
##빵	5555
왕실	5556
취미	5557
극복	5558
버릇	5559
세월	5560
감식	5561
날개	5562
앓	5563
장인	5564
요트	5565
희귀	5566
##끌	5567
##올라	5568
털썩	5569
##김	5570
승부	5571
막내	5572
상점	5573
세가	5574
##은이	5575
내주	5576
긋	5577
격렬	5578
꽂혀	5579
씌	5580
다소	5581
튀어나온	5582
경이	5583
코트	5584
기본	5585
아닐까요	5586
몫	5587
인파	5588
토끼	5589
일방	5590
헉	5591
이자	5592
폰	5593
아팠	5594
유출	5595
공공	5596
맹	5597
기를	5598
가입	5599
속마음	5600
칩	5601
스티커	5602
다방	5603
교정	5604
무서	5605
다락	5606
마음속	5607
협력	5608
여부	5609
레슨	5610
점원	5611
당첨	5612
지혜	5613
관람	5614
커진다	5615
라이	5616
답변	5617
좌	5618
낯	5619
하품	5620
가벼운	5621
거처	5622
부사장	5623
물러난	5624
결승전	5625
발전	5626
꼬리	5627
재판장	5628
테라스	5629
컨테이너	5630
데이터	5631
영수증	5632
시위대	5633
##어로	5634
가발	5635
##경찰	5636
틀렸	5637
이식	5638
어째	5639
주눅	5640
왕비	5641
엉뚱	5642
##무새	5643
중얼거리	5644
세수	5645
투입	5646
##찌	5647
잘생긴	5648
묘	5649
논문	5650
정성	5651
자자	5652
귀한	5653
열중	5654
출	5655
자원	5656
##사고	5657
베개	5658
면담	5659
##마니	5660
떴	5661
인턴	5662
벤	5663
어울린다	5664
지팡이	5665
실제	5666
불쑥	5667
마른	5668
##교사	5669
처분	5670
데뷔	5671
리허설	5672
DNA	5673
##러져	5674
중독	5675
외투	5676
주택	5677
##뇨	5678
훔쳤	5679
시끄러운	5680
탱크	5681
##의사	5682
식은땀	5683
전복	5684
액션	5685
##셋	5686
동행	5687
여론	5688
따돌리	5689
됩니까	5690
스카프	5691
이송	5692
돌멩이	5693
아깝	5694
실험실	5695
미스	5696
스카우트	5697
이력서	5698
사촌	5699
##섬	5700
바이러스	5701
차창	5702
##봅	5703
입시	5704
강사	5705
비치	5706
##아들	5707
진압	5708
공룡	5709
쏟아져	5710
사다	5711
처녀	5712
간이	5713
춥	5714
따져	5715
돌려보내	5716
달라지	5717
피어	5718
마력	5719
폭로	5720
찾아와서	5721
정전	5722
끊기	5723
빼돌	5724
기웃	5725
귀국	5726
신비	5727
검문	5728
이빨	5729
허름	5730
움직일	5731
가져다주	5732
이어진다	5733
출전	5734
흉터	5735
식물	5736
##뭉	5737
확률	5738
된다면	5739
언어	5740
밀어내	5741
맹세	5742
반격	5743
내던	5744
걸어서	5745
비참	5746
##컵	5747
##충	5748
튀어나	5749
국제	5750
오른손	5751
스님	5752
소음	5753
##넌	5754
하얗	5755
추워	5756
헌터	5757
내렸	5758
경보	5759
부지	5760
후원	5761
##켠	5762
우습	5763
알바	5764
재차	5765
##랍니다	5766
정사	5767
멋대로	5768
찬성	5769
교체	5770
파묻	5771
약한	5772
받아들	5773
##섭	5774
천막	5775
집안일	5776
갑니다	5777
국수	5778
쫓겨	5779
주스	5780
헤엄	5781
바꿨	5782
수하	5783
가루	5784
덥	5785
껴	5786
발끈	5787
혈액	5788
노모	5789
바를	5790
비춰	5791
##랐	5792
이어지	5793
##위원	5794
대령	5795
권투	5796
이메일	5797
##잡이	5798
스크린	5799
##뜨려	5800
중학생	5801
장전	5802
존중	5803
왔으니	5804
손녀	5805
편히	5806
교통	5807
##잘	5808
웅크리	5809
고마운	5810
창백	5811
제자리	5812
다다	5813
##도로	5814
##아졌	5815
청하	5816
쳐서	5817
콜	5818
중계	5819
샘플	5820
젠장	5821
##같	5822
열기	5823
한때	5824
우정	5825
비자금	5826
약초	5827
##껴	5828
제법	5829
따님	5830
붙들	5831
##췌	5832
##폐	5833
풍	5834
복부	5835
tv	5836
부려	5837
타이밍	5838
전당	5839
##아먹	5840
배고파	5841
##다운	5842
변호인	5843
##바구니	5844
거꾸로	5845
##딸	5846
덤벼	5847
출국	5848
돌아와서	5849
심지어	5850
##화가	5851
노릇	5852
스텝	5853
소릴	5854
연봉	5855
러시아	5856
작정	5857
소금	5858
바뀐다	5859
베어	5860
와도	5861
교감	5862
깍	5863
어쩐지	5864
약점	5865
동요	5866
모험	5867
지사	5868
백인	5869
일진	5870
추운	5871
공짜	5872
아이스	5873
##러웠	5874
담장	5875
##바닥	5876
쑤	5877
봄	5878
속인	5879
샴페인	5880
수화	5881
집행	5882
물러나	5883
지킨	5884
인력	5885
의외	5886
##시오	5887
주부	5888
오버	5889
한방	5890
선원	5891
검은색	5892
캠	5893
##러움	5894
지저분	5895
넘치	5896
허둥	5897
보험금	5898
꾹	5899
앵커	5900
의병	5901
수집	5902
예산	5903
사색	5904
매수	5905
감염	5906
##려야	5907
대위	5908
타이어	5909
##맞춤	5910
줄까	5911
몇몇	5912
뛰어난	5913
까먹	5914
토해	5915
골치	5916
병력	5917
나뭇가지	5918
사려	5919
전등	5920
잠수	5921
따라붙	5922
허무	5923
내년	5924
##핑	5925
마담	5926
로	5927
##넬	5928
절차	5929
닉	5930
##주머니	5931
충	5932
헐떡	5933
##회의	5934
헤치	5935
환각	5936
이가	5937
능	5938
구체	5939
날카로운	5940
객석	5941
쫓겨나	5942
오니	5943
전선	5944
퇴사	5945
닥치	5946
기부	5947
셈	5948
어떤가	5949
##액	5950
언젠	5951
봅시다	5952
국어	5953
틀림없	5954
아슬아슬	5955
모릅니다	5956
##네임	5957
임명	5958
갸우뚱	5959
목덜미	5960
노랫	5961
연행	5962
일치	5963
늘어	5964
살릴	5965
뜻대로	5966
##탐	5967
절도	5968
실적	5969
인적	5970
냅	5971
채팅	5972
시시	5973
피신	5974
장서	5975
응답	5976
돌려받	5977
순진	5978
우리나라	5979
처형	5980
승합	5981
망하	5982
아마도	5983
부끄러운	5984
국밥	5985
위태	5986
정차	5987
독립	5988
망신	5989
곰곰이	5990
군복	5991
구름	5992
대면	5993
끓여	5994
##마을	5995
손자	5996
느껴져	5997
어루만	5998
##만치	5999
타지	6000
밴	6001
그자	6002
공터	6003
사무소	6004
간첩	6005
정중	6006
##럭	6007
폼	6008
##거려	6009
갓	6010
%	6011
도적	6012
들이받	6013
손등	6014
아이돌	6015
승무원	6016
비겁	6017
화물	6018
가마	6019
알코올	6020
무단	6021
섞인	6022
목적지	6023
결제	6024
그리워하	6025
##불이	6026
동호회	6027
대마	6028
완료	6029
드러나	6030
안이	6031
##순간	6032
휘파람	6033
##넣	6034
맑	6035
바둑	6036
따라다니	6037
##떼	6038
무작정	6039
가죽	6040
들린	6041
인정받	6042
##퇴	6043
예술	6044
##굽	6045
기세	6046
악물	6047
##내리	6048
양심	6049
지점장	6050
단골	6051
힘차	6052
재즈	6053
##늦	6054
불태	6055
가다듬	6056
원수	6057
섹시	6058
뜻밖	6059
무술	6060
기상	6061
협회	6062
입맛	6063
수프	6064
페인트	6065
##이의	6066
독립군	6067
##다발	6068
일러	6069
들어야	6070
빛나	6071
출입문	6072
앞장서	6073
청와대	6074
##율	6075
경력	6076
밀리	6077
##트로	6078
부가	6079
벌리	6080
고무	6081
틀린	6082
밀린	6083
관광	6084
##씬	6085
낭	6086
몽둥이	6087
권하	6088
무겁	6089
알아들	6090
##자기	6091
##튼	6092
남겨진	6093
단속	6094
오케이	6095
방과	6096
드라이브	6097
솔	6098
수레	6099
제기	6100
뻔하	6101
의료진	6102
첨	6103
정답	6104
야채	6105
화염	6106
구워	6107
안색	6108
회전	6109
##귈	6110
노란	6111
간병	6112
섭외	6113
성관	6114
구토	6115
들려주	6116
주상	6117
황금	6118
##삼	6119
신도	6120
헬스	6121
단정	6122
구분	6123
초라	6124
사무	6125
순수	6126
혁	6127
지은	6128
저지르	6129
폐쇄	6130
이웃집	6131
스캔들	6132
관리인	6133
놀랍	6134
용돈	6135
오른	6136
음모	6137
##아버지	6138
만찬	6139
미쳐	6140
카지노	6141
가두	6142
##칙	6143
처참	6144
귀여운	6145
##좌	6146
숨겼	6147
야간	6148
학대	6149
배치	6150
본다고	6151
일요일	6152
책방	6153
무인	6154
교문	6155
걸레	6156
빨라	6157
공모전	6158
티셔츠	6159
배낭	6160
경멸	6161
콩쿠르	6162
##카드	6163
쐬	6164
하객	6165
야생	6166
인공	6167
소유	6168
등급	6169
부들부들	6170
종결	6171
교신	6172
소용	6173
운전자	6174
사자	6175
햇살	6176
등록	6177
농	6178
모은다	6179
자작	6180
너라	6181
강조	6182
브레이크	6183
##본부	6184
앤	6185
설계	6186
##빛	6187
행적	6188
비서실	6189
미워하	6190
망했	6191
##잇	6192
저질렀	6193
깡	6194
신사	6195
사이즈	6196
둘째	6197
구슬	6198
딱히	6199
애도	6200
##사의	6201
##뜩	6202
##똥	6203
찾아올	6204
전통	6205
##회장	6206
명심	6207
##사회	6208
로프	6209
폭풍	6210
궁녀	6211
방망이	6212
청문회	6213
##사이	6214
긴장감	6215
퀴즈	6216
핫	6217
##털	6218
파고	6219
오페라	6220
##쇄	6221
이의	6222
차트	6223
낌	6224
갑판	6225
별명	6226
##찜	6227
안간힘	6228
어려움	6229
##쩡	6230
입력	6231
단도	6232
헌병	6233
비키	6234
그간	6235
분해	6236
때마침	6237
동화	6238
낄	6239
만취	6240
휩싸인	6241
꼭대기	6242
세트	6243
뭣	6244
포털	6245
특	6246
하트	6247
##숴	6248
규	6249
겁나	6250
최후	6251
횡	6252
미끼	6253
성형	6254
헬리콥터	6255
##릿	6256
무너져	6257
소재	6258
신청서	6259
##아웃	6260
립스틱	6261
진행자	6262
배운다	6263
맨발	6264
강화	6265
메신저	6266
폐허	6267
아랫	6268
상속	6269
##라이	6270
미워	6271
호소	6272
달력	6273
##클럽	6274
스마트폰	6275
연합	6276
시켜서	6277
보좌관	6278
새겨진	6279
애타	6280
활용	6281
##낄	6282
##택	6283
똘	6284
다이어리	6285
개입	6286
떨어져서	6287
떡볶이	6288
코스	6289
촉	6290
끝장	6291
죄인	6292
원칙	6293
경제	6294
##노동	6295
거세	6296
지진	6297
슬슬	6298
##륙	6299
썰매	6300
어떨	6301
투명	6302
모은	6303
띠	6304
미동	6305
고아	6306
코드	6307
경연	6308
##르륵	6309
만두	6310
막무가내	6311
물질	6312
증오	6313
두드려	6314
했어야	6315
등산	6316
##률	6317
산모	6318
##라기	6319
##댔	6320
출입구	6321
##챘	6322
비추	6323
애교	6324
모형	6325
커뮤니티	6326
종종	6327
VIP	6328
놓쳤	6329
영희	6330
이뻐	6331
들렀	6332
두들	6333
유죄	6334
포대	6335
처하	6336
사지	6337
가한	6338
초등학생	6339
비워	6340
곤충	6341
##어나	6342
알아채	6343
방화	6344
가신	6345
물체	6346
숨겨진	6347
정보원	6348
부어	6349
예언	6350
온천	6351
손길	6352
반사	6353
막상	6354
수석	6355
단독	6356
발휘	6357
이장	6358
##새끼	6359
버텨	6360
써도	6361
사면	6362
격투	6363
##대표	6364
개월	6365
국내	6366
핸드백	6367
둘러싸	6368
##컴	6369
다름없	6370
##린다고	6371
흡족	6372
지겹	6373
질질	6374
##둣	6375
수류	6376
광주	6377
대륙	6378
숨소리	6379
##평	6380
세력	6381
##마당	6382
수없이	6383
승	6384
둘러싸여	6385
회견	6386
드러	6387
도난	6388
적어도	6389
다이어트	6390
제조	6391
임금	6392
십자가	6393
프로필	6394
전광판	6395
근거	6396
노동자	6397
잊어버리	6398
저건	6399
어쩜	6400
성큼	6401
언론사	6402
마십시오	6403
선반	6404
##싹	6405
##갯	6406
발전소	6407
다를	6408
결재	6409
고깃	6410
이민	6411
교단	6412
턴	6413
웬만	6414
그대	6415
파란	6416
##똘	6417
입안	6418
##네이	6419
안기	6420
셔터	6421
한적	6422
낯설	6423
나와요	6424
터질	6425
거나	6426
그니까	6427
##갑니다	6428
걸려서	6429
열광	6430
##향	6431
국회의원	6432
전교	6433
웃긴	6434
금메달	6435
봉인	6436
##육	6437
코끼리	6438
선발	6439
동원	6440
들렸	6441
노예	6442
찍혀	6443
##파이	6444
절반	6445
입혀	6446
##붓	6447
퍽	6448
일과	6449
여섯	6450
부서지	6451
견딜	6452
순경	6453
중지	6454
행위	6455
키웠	6456
##스터	6457
백미	6458
##불명	6459
변론	6460
뚝	6461
작곡	6462
스치	6463
가깝	6464
왈	6465
끌어당	6466
커서	6467
팔자	6468
주정	6469
풀이	6470
특종	6471
소화	6472
참가자	6473
태어났	6474
양주	6475
##처리	6476
슬그머니	6477
부름	6478
시킬	6479
야경	6480
전용	6481
결승	6482
빅	6483
##맛	6484
이래서	6485
둘러싼	6486
성실	6487
든든	6488
갑작스럽	6489
장애	6490
터미널	6491
국정원	6492
뚱뚱	6493
콜라	6494
뭘까	6495
말문	6496
붕괴	6497
벌인	6498
아가	6499
여우	6500
엔진	6501
찾아볼	6502
냄비	6503
총성	6504
얻어맞	6505
반려	6506
진상	6507
부당	6508
추정	6509
터뜨리	6510
사우나	6511
이쁜	6512
##구멍	6513
익명	6514
폐지	6515
후드	6516
귀여워	6517
여쭤	6518
체조	6519
우체국	6520
화성	6521
찜	6522
복싱	6523
##조심	6524
해내	6525
어둡	6526
##꺼	6527
터트리	6528
##그룹	6529
부상자	6530
성의	6531
소대	6532
석방	6533
담겨	6534
도심	6535
폭주	6536
본능	6537
새해	6538
##보드	6539
소방관	6540
파편	6541
##행위	6542
체력	6543
상관없이	6544
끝냈	6545
깐	6546
두려운	6547
흘려	6548
부재	6549
두르	6550
정자	6551
보장	6552
조선인	6553
즉시	6554
올림픽	6555
배심원	6556
지급	6557
반대쪽	6558
고려	6559
콘셉트	6560
##거래	6561
철거	6562
##깟	6563
남한	6564
아녜	6565
##그래	6566
파이팅	6567
해당	6568
서두르	6569
건축	6570
물리치	6571
나비	6572
스포츠카	6573
섞여	6574
모의	6575
당선	6576
입수	6577
불려	6578
적당	6579
쟁반	6580
불안감	6581
##허	6582
예식	6583
생존	6584
수염	6585
하염없이	6586
수단	6587
일지	6588
형수	6589
수익	6590
내다보	6591
수입	6592
##문제	6593
올라왔	6594
물러서	6595
박혀	6596
떠올라	6597
봐야지	6598
##42	6599
##둑	6600
원주민	6601
깜박	6602
부패	6603
전략	6604
와라	6605
행장	6606
##하우스	6607
그럴까	6608
런던	6609
낙하산	6610
또래	6611
산길	6612
토요일	6613
119	6614
대우	6615
##시장	6616
야구장	6617
알아차리	6618
펀치	6619
무지	6620
신인	6621
의기	6622
홈페이지	6623
사령관	6624
폐하	6625
울상	6626
만세	6627
뻥	6628
최초	6629
전설	6630
생명체	6631
강호	6632
피고	6633
쿨	6634
찾아다니	6635
##장구	6636
딱지	6637
바닷속	6638
고지	6639
내사	6640
경찰대	6641
행정	6642
기준	6643
파이	6644
가로등	6645
##치마	6646
이동해	6647
제약	6648
백악관	6649
내릴	6650
##묘	6651
습관	6652
##돔	6653
연출	6654
시점	6655
진흙	6656
연필	6657
천만	6658
##자식	6659
무식	6660
경마	6661
세팅	6662
만화가	6663
미니	6664
표지	6665
호들갑	6666
수의	6667
병동	6668
하나님	6669
##국장	6670
##치료	6671
사례	6672
홈	6673
크다	6674
건성	6675
아동	6676
##팩	6677
문화	6678
따돌	6679
주입	6680
재혼	6681
진통제	6682
정복	6683
물려	6684
달라졌	6685
상부	6686
그만큼	6687
볼펜	6688
낭독	6689
치과	6690
장담	6691
전공	6692
용감	6693
은빛	6694
데모	6695
꿰	6696
다만	6697
하수	6698
깃발	6699
음주	6700
두근	6701
추위	6702
생전	6703
치사	6704
혹	6705
포탄	6706
향기	6707
배울	6708
##블	6709
추모	6710
장관	6711
어지	6712
##가리	6713
프린트	6714
아드	6715
은근	6716
내달	6717
창호	6718
기구	6719
생활비	6720
낭비	6721
대수롭	6722
포크	6723
휴게소	6724
시트	6725
조준	6726
눈초리	6727
얼룩	6728
조립	6729
##쳐서	6730
반기	6731
견제	6732
행세	6733
살살	6734
주춤	6735
찰나	6736
##아내	6737
군중	6738
한자	6739
어지럽	6740
##개발	6741
그나마	6742
암튼	6743
건방	6744
지장	6745
벙	6746
효	6747
잠수함	6748
간수	6749
크기	6750
추스	6751
##델	6752
들이대	6753
받아들일	6754
국물	6755
##셀	6756
뛰어다니	6757
엑스	6758
주점	6759
아픔	6760
소름	6761
피할	6762
타깃	6763
필리핀	6764
찻잔	6765
사전	6766
남쪽	6767
데스크	6768
##뼛	6769
##뜨	6770
옅	6771
쏠	6772
갈라	6773
##댕이	6774
##43	6775
연료	6776
악화	6777
재빠르	6778
상품권	6779
##큐	6780
전쟁터	6781
지면	6782
승강기	6783
인한	6784
연속	6785
액수	6786
늪	6787
##관리	6788
온라인	6789
치밀	6790
여행객	6791
##징	6792
며느리	6793
은밀	6794
##쁜	6795
신의	6796
충성	6797
##어먹	6798
계장	6799
##적거리	6800
##샷	6801
백만	6802
뵈	6803
앞쪽	6804
##차별	6805
씌우	6806
꿨	6807
흩어진	6808
##대장	6809
보여준	6810
마음껏	6811
합쳐	6812
옥수수	6813
고속도로	6814
환한	6815
꾸러미	6816
원숭이	6817
희생자	6818
도자기	6819
스탠드	6820
전담	6821
올라갈	6822
행진	6823
##렬	6824
처가	6825
반짝이	6826
미국인	6827
슈트	6828
둘러앉	6829
깔깔	6830
남매	6831
##닉	6832
이르	6833
을	6834
두부	6835
막걸리	6836
금세	6837
들통	6838
지경	6839
닫혀	6840
형편없	6841
알몸	6842
개업	6843
##질러	6844
날라	6845
구르	6846
지명	6847
셰프	6848
법률	6849
유감	6850
쿠키	6851
슬며시	6852
반납	6853
반짝	6854
동선	6855
비하	6856
반발	6857
갑옷	6858
선착장	6859
지분	6860
##측	6861
궁궐	6862
##더미	6863
시범	6864
들떠	6865
바랐	6866
돌아간	6867
문장	6868
드론	6869
시상식	6870
기다	6871
##드레	6872
##랑이	6873
끊임없이	6874
팩스	6875
회유	6876
##깔	6877
몬	6878
현수막	6879
##맑	6880
담뱃	6881
다이아몬드	6882
서방	6883
영양	6884
입사	6885
머금	6886
햇빛	6887
13	6888
준거	6889
지속	6890
마냥	6891
성경	6892
##집니다	6893
밀실	6894
납득	6895
##밑	6896
화학	6897
종소리	6898
위원회	6899
전처	6900
뱃속	6901
판정	6902
처방	6903
##벙	6904
사교	6905
위스키	6906
노을	6907
해낼	6908
살아나	6909
##걸음	6910
조그만	6911
중환자실	6912
매달리	6913
보아	6914
24	6915
근황	6916
동사	6917
들인	6918
생각났	6919
연재	6920
적군	6921
이왕	6922
자제	6923
표지판	6924
키보드	6925
포르노	6926
올랐	6927
장모	6928
둥	6929
졸업식	6930
제한	6931
팁	6932
독일	6933
##게임	6934
수강	6935
총각	6936
미제	6937
충동	6938
살아왔	6939
되도록	6940
그렸	6941
참고인	6942
참담	6943
창구	6944
벌려	6945
짓밟	6946
라이트	6947
별다른	6948
안녕히	6949
기다려야	6950
플레이어	6951
대머리	6952
두통	6953
호통	6954
기다린	6955
천국	6956
격리	6957
다닌	6958
수치	6959
튄	6960
미끄	6961
벽돌	6962
캐스팅	6963
시인	6964
나눴	6965
묻힌	6966
죗	6967
방심	6968
돼야	6969
대처	6970
보건	6971
##이동	6972
중재	6973
깨물	6974
여배우	6975
이분	6976
성사	6977
포로	6978
태아	6979
바늘	6980
주류	6981
빨려	6982
안개	6983
아껴	6984
##몽	6985
라인	6986
정글	6987
##건설	6988
사적	6989
걸치	6990
뚝뚝	6991
라는	6992
출판	6993
상하	6994
속여	6995
매점	6996
팔뚝	6997
남이	6998
##가스	6999
##협	7000
떠밀	7001
묻혀	7002
틀리	7003
넷	7004
무관	7005
해안	7006
보일러	7007
계열사	7008
동창회	7009
타격	7010
##휴	7011
이어서	7012
검정	7013
입증	7014
위반	7015
러닝	7016
뒤돌아보	7017
갈지	7018
아우	7019
미루	7020
항복	7021
우려	7022
뒤이	7023
미진	7024
물려받	7025
그립	7026
해본다	7027
수위	7028
갈대	7029
망할	7030
접어	7031
##라치	7032
불과	7033
폭포	7034
학	7035
세탁기	7036
수작	7037
몸매	7038
##마는	7039
고칠	7040
##으리	7041
탐지	7042
개울	7043
다큐멘터리	7044
관여	7045
완	7046
##외	7047
규정	7048
왕따	7049
성과	7050
주간지	7051
점령	7052
여행사	7053
병기	7054
주도	7055
계정	7056
담보	7057
어기	7058
근사	7059
##츠	7060
기막	7061
보디	7062
코앞	7063
사병	7064
상금	7065
/	7066
##솔	7067
미용	7068
##리지	7069
실컷	7070
입국	7071
쓱	7072
맞춰서	7073
인테리어	7074
다툼	7075
조절	7076
저것	7077
광기	7078
성추행	7079
각서	7080
빨간색	7081
##레이	7082
독서	7083
한계	7084
접견	7085
##봇	7086
함성	7087
호의	7088
외상	7089
살림	7090
경사	7091
청장	7092
대행	7093
재주	7094
뮤직	7095
보입니다	7096
슬리퍼	7097
부러진	7098
채찍	7099
섭정	7100
동반자	7101
덧붙	7102
##넨	7103
덫	7104
숙박	7105
상황실	7106
틀어막	7107
선정	7108
거품	7109
야유	7110
느낄	7111
루돌프	7112
원했	7113
메인	7114
주지사	7115
무자비	7116
흔쾌히	7117
승인	7118
엉엉	7119
스토리	7120
성냥	7121
주교	7122
세워진	7123
막대	7124
약품	7125
##압	7126
외로움	7127
##맥	7128
안마	7129
순순히	7130
##벨트	7131
민간인	7132
채취	7133
훑어보	7134
보수	7135
산타	7136
무게	7137
신경전	7138
흐트	7139
##젠	7140
##댁	7141
진단	7142
떨구	7143
레이싱	7144
경영	7145
뮤지컬	7146
##바위	7147
손대	7148
애매	7149
##렁거리	7150
아이디	7151
##꿍	7152
다가서	7153
즐겨	7154
할인	7155
구원	7156
측은	7157
##흉	7158
##켓	7159
욱	7160
공손	7161
시에	7162
입찰	7163
MP	7164
고수	7165
단호히	7166
오직	7167
진행할	7168
대도	7169
앙	7170
푸른	7171
삭	7172
##봉사	7173
인식	7174
진다	7175
홍콩	7176
태권도	7177
스테이크	7178
부활	7179
뜨겁	7180
조교	7181
인종	7182
수능	7183
기수	7184
킥	7185
요리사	7186
가져올	7187
휘둘러	7188
중고	7189
겹쳐	7190
##젖	7191
최소한	7192
모였	7193
웹툰	7194
##페	7195
직	7196
무심코	7197
간절히	7198
문양	7199
끼치	7200
뿔	7201
뒤따	7202
성희롱	7203
유럽	7204
대사관	7205
보답	7206
버틸	7207
상당히	7208
덩	7209
수만	7210
색깔	7211
복원	7212
##타임	7213
##걸이	7214
뜬금	7215
학기	7216
거인	7217
어수선	7218
축복	7219
아플	7220
바치	7221
기특	7222
실감	7223
감찰	7224
민원	7225
##헉	7226
잔디	7227
탐사	7228
공지	7229
지그	7230
일곱	7231
가져갈	7232
협	7233
은근히	7234
골프장	7235
소독	7236
황태자	7237
정령	7238
부딪치	7239
##염	7240
점프	7241
나리	7242
잠기	7243
설교	7244
##뜨릴	7245
몰린	7246
##그레	7247
풀렸	7248
보증금	7249
영원	7250
국경	7251
간지	7252
전주	7253
조종사	7254
쐈	7255
제물	7256
깔려	7257
하여	7258
상가	7259
북쪽	7260
##춰	7261
##숲	7262
론	7263
##뒤	7264
##쟁	7265
피리	7266
몰두	7267
댄	7268
선임	7269
전보	7270
간단히	7271
해야죠	7272
서버	7273
##톱	7274
침략	7275
달라질	7276
따라잡	7277
종류	7278
금융	7279
자취	7280
걸쳐	7281
차별	7282
섰	7283
팽팽	7284
형편	7285
어쨌	7286
올렸	7287
선로	7288
오가	7289
깃털	7290
주가	7291
스케이트	7292
진찰	7293
머무	7294
감각	7295
모범	7296
햄	7297
치를	7298
질책	7299
배정	7300
나타날	7301
증세	7302
형식	7303
정육	7304
찝	7305
후궁	7306
드렸	7307
붙인	7308
오리	7309
계약직	7310
연이	7311
##키지	7312
기관총	7313
우울증	7314
정돈	7315
##막이	7316
꼽	7317
하구	7318
사위	7319
거들	7320
##미터	7321
피난	7322
브로	7323
분식	7324
##붙이	7325
중위	7326
##턴트	7327
흡수	7328
장애인	7329
합창	7330
뜰	7331
시달리	7332
꿔	7333
미끄러져	7334
태양	7335
첩보	7336
규모	7337
조깅	7338
받아들여	7339
전속	7340
살며시	7341
스물	7342
치른다	7343
무거워	7344
위하	7345
숙취	7346
##늘	7347
##나와	7348
거만	7349
챙겼	7350
선명	7351
떠돌	7352
가나	7353
기념일	7354
구석구석	7355
단계	7356
정희	7357
새우	7358
드려	7359
장가	7360
넘어갈	7361
예배당	7362
삼겹살	7363
양치	7364
키울	7365
##닌	7366
폭격	7367
해방	7368
행렬	7369
##던트	7370
일원	7371
비비	7372
금속	7373
권한	7374
차인	7375
찜질방	7376
딱딱	7377
회수	7378
마케팅	7379
교차	7380
하하	7381
액	7382
##람	7383
인근	7384
선전	7385
심기	7386
태풍	7387
확정	7388
##잉	7389
수장	7390
야단	7391
한구석	7392
소방대	7393
소품	7394
인출	7395
날카롭	7396
##44	7397
다가온	7398
컨디션	7399
##캠	7400
25	7401
쌀쌀	7402
보살	7403
##내기	7404
일식	7405
입지	7406
500	7407
수호	7408
투자자	7409
혼수	7410
생수	7411
탁구	7412
깔린	7413
잠금	7414
라이벌	7415
윌	7416
젤	7417
관할	7418
신중	7419
가든	7420
선박	7421
단숨에	7422
전자	7423
깼	7424
이윽고	7425
부친	7426
지상	7427
##어들	7428
성가	7429
모조리	7430
복용	7431
올릴	7432
골든	7433
##주의	7434
속보	7435
달걀	7436
모아서	7437
부드럽	7438
모집	7439
##바람	7440
사라질	7441
명부	7442
놀랄	7443
성적표	7444
탈취	7445
드셨	7446
점주	7447
문지	7448
##칩	7449
레코드	7450
의회	7451
저절로	7452
한껏	7453
해제	7454
클릭	7455
소방	7456
##팬	7457
공고	7458
계실	7459
헝	7460
대놓고	7461
##렀	7462
억지	7463
공화국	7464
근육	7465
소행	7466
부디	7467
고리	7468
흩어져	7469
훈장	7470
사라	7471
첼로	7472
죽임	7473
기능	7474
소멸	7475
다발	7476
##쁠	7477
어설	7478
추방	7479
주임	7480
넘겼	7481
자면	7482
##빌	7483
사시	7484
군데	7485
이익	7486
끝낼	7487
##콩	7488
##근무	7489
생리	7490
와이	7491
##시험	7492
기울이	7493
오류	7494
비해	7495
독특	7496
##팽	7497
한바탕	7498
나르	7499
집들이	7500
영사	7501
개구리	7502
보살펴	7503
따라갈	7504
환불	7505
수저	7506
K	7507
##뜰	7508
찌푸리	7509
매춘	7510
광대	7511
이끌려	7512
일일이	7513
샅샅이	7514
##C	7515
부두	7516
##디오	7517
테니스	7518
집요	7519
수사대	7520
바꾼	7521
패션	7522
빠질	7523
마주쳤	7524
번지	7525
##라지	7526
휴	7527
알아본	7528
입힌	7529
못한다는	7530
시한	7531
들뜬	7532
돌린	7533
둘러싸인	7534
##기념	7535
염소	7536
일대	7537
잘려	7538
컷	7539
공급	7540
꾀	7541
주로	7542
빼앗긴	7543
비꼬	7544
그물	7545
항아리	7546
거액	7547
##찮	7548
전진	7549
재활	7550
도어	7551
기기	7552
뜸	7553
사소	7554
바로잡	7555
싱글	7556
깊숙이	7557
헷갈	7558
부추	7559
용역	7560
제대	7561
밀수	7562
빼돌린	7563
펑펑	7564
구성	7565
지퍼	7566
휘말	7567
교대	7568
박물관	7569
게임기	7570
학생회	7571
##팍	7572
시큰	7573
##치우	7574
해석	7575
##플릿	7576
운전대	7577
두루	7578
수영복	7579
우수	7580
감염자	7581
베트남	7582
위쪽	7583
내미	7584
웃겨	7585
세워져	7586
##믄	7587
동지	7588
관중석	7589
사죄	7590
기동	7591
죄다	7592
이야	7593
쉬워	7594
천하	7595
국회	7596
끓	7597
바뀔	7598
연습장	7599
설렘	7600
총탄	7601
밝힐	7602
액세서리	7603
란	7604
남동생	7605
동의서	7606
팸	7607
해지	7608
탐정	7609
뛰어넘	7610
고물	7611
손잡고	7612
뒤엉	7613
자랐	7614
훈련장	7615
관광객	7616
양육	7617
팥	7618
내준	7619
최대	7620
청구	7621
##텔	7622
유력	7623
투어	7624
누님	7625
뭉	7626
의리	7627
이중	7628
수거	7629
돌아갔	7630
만물	7631
연주가	7632
갇히	7633
P	7634
음식물	7635
파기	7636
##픈	7637
동무	7638
접대	7639
재정	7640
##47	7641
##덩	7642
여전	7643
산부인과	7644
치러	7645
팽	7646
회사원	7647
짱	7648
묻히	7649
모퉁이	7650
철조	7651
##랭	7652
흡	7653
픽	7654
한꺼번에	7655
연탄	7656
가해자	7657
##스트	7658
0	7659
##무기	7660
염색	7661
한판	7662
대의	7663
퍼져	7664
독한	7665
대지	7666
번호판	7667
흠뻑	7668
두른	7669
독일군	7670
에스컬레이터	7671
퍼즐	7672
세운	7673
젊은이	7674
무의식	7675
즉	7676
##멸	7677
요양	7678
신령	7679
약하	7680
##옵	7681
형태	7682
를	7683
단순히	7684
플랫폼	7685
기르	7686
소동	7687
거북이	7688
대자	7689
용의	7690
케이	7691
사슴	7692
한발	7693
내심	7694
시어머니	7695
밉	7696
등지	7697
우승자	7698
트로피	7699
##무리	7700
##도리	7701
오만	7702
윙	7703
사이드	7704
노조	7705
찰	7706
마땅	7707
발코니	7708
붙잡혀	7709
##기지	7710
높인다	7711
난데	7712
씨름	7713
사생활	7714
부품	7715
악의	7716
뚱	7717
주전자	7718
자란	7719
찬찬히	7720
보증	7721
신장	7722
가이드	7723
얄	7724
동경	7725
35	7726
꿈꾸	7727
##고생	7728
비판	7729
##꽂	7730
신호등	7731
자매	7732
메달	7733
고프	7734
무모	7735
반문	7736
난사	7737
맡겼	7738
주요	7739
몸짓	7740
##암	7741
교습	7742
횟집	7743
깨끗이	7744
체험	7745
반하	7746
날뛰	7747
팩	7748
쫙	7749
린	7750
늘어진	7751
설계도	7752
놀림	7753
진급	7754
졸라	7755
속삭이	7756
버림	7757
##b	7758
##시스	7759
본체	7760
펼쳐진다	7761
간직	7762
정기	7763
뱀파이어	7764
썰	7765
남겼	7766
경로	7767
선비	7768
내뿜	7769
멧돼지	7770
허허	7771
잔해	7772
조연	7773
서른	7774
찻	7775
일반인	7776
뒤처	7777
해피	7778
성분	7779
책임감	7780
소령	7781
살아간다	7782
왕궁	7783
아아	7784
한약	7785
부녀	7786
대선	7787
팟캐스트	7788
양동	7789
정적	7790
다이아	7791
난민	7792
재심	7793
제안서	7794
우스	7795
고파	7796
어려	7797
케이블카	7798
서면	7799
방범	7800
교과서	7801
무능	7802
##동생	7803
놓쳐	7804
철저	7805
정해진	7806
대들	7807
섬뜩	7808
설정	7809
말썽	7810
땅바닥	7811
앞둔	7812
엘프	7813
##동산	7814
지켰	7815
펭귄	7816
##밍	7817
청소기	7818
앞뒤	7819
니	7820
가을	7821
초소	7822
반해	7823
주연	7824
빙긋	7825
소형	7826
문고	7827
바랄	7828
솟구	7829
##끄	7830
체온	7831
디자이너	7832
등대	7833
사수	7834
경련	7835
해냈	7836
알려야	7837
타이틀	7838
##의자	7839
고해	7840
야쿠	7841
만년	7842
수백	7843
##삭	7844
응징	7845
실체	7846
짙	7847
의외로	7848
다진	7849
##방울	7850
굉장	7851
##로이드	7852
복구	7853
자상	7854
업소	7855
어질	7856
엽서	7857
소집	7858
인류	7859
##쓸	7860
##46	7861
제보자	7862
##운전	7863
볼링	7864
##뒹	7865
벗어날	7866
리어	7867
달라붙	7868
갈비	7869
동화책	7870
기대감	7871
차렸	7872
장학금	7873
반면	7874
랜	7875
오더	7876
준다는	7877
대담	7878
##짢	7879
폴라	7880
##훈련	7881
펑크	7882
들르	7883
못난	7884
몰리	7885
연루	7886
대전	7887
미간	7888
플래카드	7889
##댓	7890
유흥	7891
뒤덮	7892
침투	7893
보인	7894
굴지	7895
이탈	7896
활약	7897
##쭉	7898
전방	7899
웅크	7900
공통점	7901
재고	7902
율	7903
##다른	7904
생산	7905
##슥	7906
견뎌	7907
후진	7908
보급	7909
껄	7910
##힘	7911
드셔	7912
##특	7913
살아갈	7914
록	7915
비록	7916
강타	7917
##영화	7918
가드	7919
뵐	7920
귀환	7921
나온다고	7922
튕	7923
친분	7924
앵	7925
기원	7926
멸망	7927
꼼꼼히	7928
스파	7929
밤하늘	7930
고추	7931
도왔	7932
보상금	7933
알아주	7934
##축	7935
소화기	7936
풋볼	7937
레벨	7938
고대	7939
지켜봐	7940
험한	7941
탐색	7942
메뉴판	7943
올라서	7944
독촉	7945
리더	7946
쿠폰	7947
꿈틀	7948
자초	7949
괴로	7950
러브	7951
인재	7952
반역	7953
정정	7954
##꼰	7955
측정	7956
18	7957
##탱크	7958
심했	7959
##다녀	7960
배수	7961
종양	7962
벌거벗	7963
부잣집	7964
의한	7965
사양	7966
개선	7967
급식	7968
깡통	7969
인맥	7970
자선	7971
막사	7972
오른팔	7973
놀라운	7974
져	7975
14	7976
뒷걸음	7977
자회사	7978
예능	7979
##방위	7980
몰려들	7981
싱	7982
통쾌	7983
골랐	7984
베이스	7985
대중교통	7986
거침없이	7987
줘도	7988
로맨틱	7989
굴리	7990
달렸	7991
플레이	7992
산다는	7993
##자와	7994
독자	7995
자녀	7996
마피아	7997
구걸	7998
개시	7999
출시	8000
잎	8001
##코트	8002
전신	8003
합창단	8004
으쓱	8005
얕	8006
양호	8007
잠자	8008
황무지	8009
모함	8010
험악	8011
위해선	8012
전무	8013
피웠	8014
##골목	8015
##구니	8016
##웅	8017
외도	8018
하여튼	8019
샘	8020
글귀	8021
운반	8022
길드	8023
군함	8024
전차	8025
생쥐	8026
홈런	8027
높여	8028
##맹이	8029
봬	8030
##자락	8031
수로	8032
뒹굴	8033
계십니다	8034
파업	8035
화단	8036
드실	8037
연주회	8038
스프링	8039
분만	8040
##섯	8041
떠올려	8042
찼	8043
멈출	8044
가하	8045
도우미	8046
손잡	8047
유적지	8048
태어날	8049
손발	8050
연주자	8051
까마귀	8052
연방	8053
오징어	8054
쩔	8055
##세계	8056
반칙	8057
트리	8058
##용품	8059
##가드	8060
땡	8061
어려서	8062
초반	8063
##칵	8064
유쾌	8065
잡화	8066
까칠	8067
나뭇잎	8068
담그	8069
##져야	8070
닥쳐	8071
투수	8072
도리	8073
##균	8074
하와이	8075
진출	8076
그릴	8077
득	8078
초음파	8079
순위	8080
안대	8081
옮길	8082
내려앉	8083
상체	8084
들으면서	8085
취재진	8086
호명	8087
애완	8088
낙태	8089
##욱	8090
유기	8091
보따리	8092
훼손	8093
처남	8094
흔드	8095
좌우	8096
일보	8097
대가리	8098
##단체	8099
세단	8100
미화	8101
게이트	8102
##바다	8103
나인	8104
무선	8105
비둘기	8106
##어났	8107
압류	8108
##벌레	8109
성수	8110
어리석	8111
표적	8112
엄지	8113
엽	8114
울타리	8115
결연	8116
법대	8117
준영	8118
중대	8119
빨갱이	8120
지원자	8121
찢어지	8122
발동	8123
기간제	8124
##확	8125
공안	8126
강남	8127
세례	8128
검출	8129
만일	8130
잰	8131
##라인	8132
설문	8133
압수	8134
수라	8135
뱃	8136
체스	8137
##리스	8138
다람쥐	8139
딸기	8140
연합군	8141
##구석	8142
왕관	8143
되돌려	8144
호주	8145
PC	8146
자막	8147
내용물	8148
##작전	8149
##램	8150
17	8151
롤러	8152
앱	8153
강압	8154
국과	8155
패션쇼	8156
위안부	8157
치명	8158
조국	8159
주어	8160
다녀야	8161
나선	8162
맡길	8163
떠서	8164
##커피	8165
쌈	8166
장점	8167
출근길	8168
##꺽	8169
개미	8170
화산	8171
관통	8172
반란군	8173
##농	8174
결말	8175
##잔치	8176
##러우	8177
변질	8178
허우	8179
승마	8180
우왕좌왕	8181
평온	8182
무너	8183
식료품	8184
복제	8185
노파	8186
그리움	8187
##또	8188
00	8189
모면	8190
간섭	8191
레이	8192
목장	8193
##릴라	8194
##디스	8195
처단	8196
찾아갈	8197
떠내려	8198
부릅	8199
물살	8200
##메이트	8201
레시피	8202
##킥	8203
기술자	8204
송금	8205
레이저	8206
페이지	8207
천정	8208
올라갔	8209
##동물	8210
대동	8211
나른	8212
과부	8213
굉	8214
파워	8215
굳어지	8216
승소	8217
미지	8218
느리	8219
평	8220
사가	8221
당직	8222
##데이	8223
나눌	8224
가르	8225
배지	8226
움츠	8227
렌즈	8228
장수	8229
##꾹	8230
국도	8231
꿍	8232
낮추	8233
유태인	8234
##짱	8235
##길이	8236
멎	8237
네일	8238
받쳐	8239
빼앗기	8240
꼼꼼	8241
##녁	8242
충전	8243
사료	8244
도피	8245
괴로움	8246
부작용	8247
움	8248
장작	8249
운전사	8250
##손가락	8251
아웃	8252
##썩	8253
탈락	8254
경치	8255
체중	8256
치료제	8257
매몰	8258
성문	8259
보태	8260
전지훈련	8261
돌이	8262
화원	8263
차선	8264
윤리	8265
신념	8266
내키	8267
들으니	8268
전단	8269
방황	8270
##랙	8271
맞닥	8272
예측	8273
학창	8274
##시대	8275
레지	8276
##찝	8277
국군	8278
##곱	8279
막대기	8280
내려갈	8281
압도	8282
후퇴	8283
잡힐	8284
루	8285
사망자	8286
정했	8287
흘러가	8288
그려져	8289
몰려오	8290
벌금	8291
엘	8292
실루엣	8293
하여간	8294
팔꿈치	8295
수박	8296
동성애자	8297
##씹	8298
럭비	8299
난로	8300
테러리스트	8301
들어선	8302
문학	8303
공자	8304
소감	8305
속셈	8306
빌렸	8307
경직	8308
끓이	8309
성모	8310
가동	8311
##빨	8312
도면	8313
##마리	8314
끙	8315
괴롭혔	8316
온도	8317
바이크	8318
대변	8319
뒤따르	8320
하드	8321
나아가	8322
초점	8323
해안가	8324
근심	8325
지게	8326
재우	8327
이루어지	8328
명절	8329
동맹	8330
구형	8331
##비스	8332
똑똑히	8333
소방차	8334
맞대	8335
출처	8336
종목	8337
서약	8338
##처치	8339
일종	8340
오디오	8341
수선	8342
##뇌	8343
중대장	8344
스무	8345
띄워	8346
징수	8347
##궂	8348
양해	8349
떠나가	8350
공판	8351
##다녔	8352
백수	8353
##겹	8354
살펴	8355
조반	8356
엄지손가락	8357
##a	8358
해골	8359
강변	8360
서툴	8361
나설	8362
미역국	8363
##부모	8364
궁리	8365
삼각	8366
##50	8367
로켓	8368
전갈	8369
변할	8370
소통	8371
90	8372
이랬	8373
핥	8374
앞길	8375
흩	8376
##m	8377
무고	8378
모자란	8379
강연	8380
합성	8381
##젤	8382
쇼핑몰	8383
정규직	8384
돋	8385
전파	8386
상대편	8387
매각	8388
주치의	8389
출력	8390
걸친	8391
탄광	8392
뿌	8393
데이	8394
포도	8395
앉히	8396
스쿨	8397
실시	8398
레슬링	8399
폐기	8400
에이스	8401
##앙	8402
몰입	8403
승강장	8404
갈기	8405
시술	8406
16	8407
문안	8408
아버	8409
구절	8410
유가족	8411
살아온	8412
퉁명	8413
구호	8414
##무진	8415
아래쪽	8416
##컹	8417
칼날	8418
임산부	8419
겨냥	8420
잔치	8421
장만	8422
머무르	8423
혜	8424
##거지	8425
표절	8426
막막	8427
지으	8428
강렬	8429
뛸	8430
##링크	8431
미칠	8432
친정	8433
용지	8434
해왔	8435
선뜻	8436
미성년자	8437
##기야	8438
##헤	8439
유독	8440
북적	8441
숨길	8442
##혀서	8443
마이	8444
특정	8445
쓸모	8446
군부대	8447
발음	8448
지긋지긋	8449
노비	8450
궁지	8451
##제품	8452
상승	8453
찍히	8454
대항	8455
상위	8456
확대	8457
매표	8458
구청	8459
난다는	8460
제어	8461
비열	8462
형상	8463
처절	8464
##그라	8465
혈관	8466
부관	8467
교내	8468
모녀	8469
응대	8470
벙커	8471
줄지	8472
진학	8473
원두	8474
무참	8475
중개	8476
어묵	8477
##비아	8478
##폭력	8479
미끄러지	8480
저수지	8481
맛없	8482
소풍	8483
스위스	8484
이른다	8485
관제	8486
##랴	8487
##러울	8488
견	8489
##쭐	8490
옮겼	8491
##꼭	8492
방바닥	8493
새삼	8494
팻말	8495
형체	8496
올지	8497
흐릿	8498
손주	8499
치즈	8500
요정	8501
무용	8502
산적	8503
군수	8504
비극	8505
이직	8506
어부	8507
게시	8508
허전	8509
폐차	8510
외로운	8511
##뿔	8512
인자	8513
치열	8514
휴양지	8515
정작	8516
DJ	8517
외침	8518
이라	8519
##띠	8520
흰색	8521
경관	8522
랩	8523
바빴	8524
다운	8525
##범죄	8526
널려	8527
멈췄	8528
펼쳐진	8529
리본	8530
병원장	8531
몸값	8532
칫솔	8533
시험장	8534
아프리카	8535
일일	8536
낚싯	8537
폐교	8538
##닫	8539
##익	8540
매년	8541
맴	8542
수학여행	8543
무렵	8544
매입	8545
트레일	8546
활주로	8547
밀어붙	8548
갖춰	8549
전할	8550
##끙	8551
조문	8552
의대	8553
##뻘	8554
##갖	8555
묘하	8556
역력	8557
휴전	8558
선보인다	8559
어마어마	8560
곧이어	8561
잡아가	8562
얽힌	8563
밝혀졌	8564
폭발물	8565
터졌	8566
피의자	8567
원치	8568
등록금	8569
##고사	8570
조각상	8571
지식	8572
##가루	8573
덮인	8574
특집	8575
##이트	8576
분신	8577
공소시효	8578
메이크업	8579
19	8580
##찻	8581
덩어리	8582
##바리	8583
기장	8584
정한다	8585
버섯	8586
결코	8587
갤러리	8588
##널	8589
시중	8590
동조	8591
에어	8592
서글	8593
지니	8594
고심	8595
안테나	8596
바닷물	8597
##장수	8598
노부	8599
중동	8600
살린	8601
헌	8602
##툴	8603
초청	8604
뒹	8605
공구	8606
웹	8607
위원	8608
메모리	8609
여주인	8610
끼얹	8611
눌	8612
사유	8613
스타킹	8614
제단	8615
문의	8616
왜냐	8617
퀵	8618
방도	8619
소시지	8620
스톱	8621
탐험	8622
나와야	8623
타입	8624
더운	8625
재앙	8626
월요일	8627
채권	8628
연설문	8629
##콜	8630
침몰	8631
시가	8632
출하	8633
튀어나오	8634
방치	8635
##랫	8636
볼까요	8637
손상	8638
예고	8639
CT	8640
위원장	8641
세련	8642
스파게티	8643
불로	8644
상징	8645
연말	8646
양파	8647
연고	8648
격하	8649
속임수	8650
##운동	8651
대중	8652
추도	8653
소심	8654
파란색	8655
개조	8656
동문	8657
조서	8658
망토	8659
달라요	8660
성기	8661
미모	8662
발표회	8663
뜨거워	8664
가상	8665
제멋대로	8666
기증	8667
망설임	8668
보람	8669
초보	8670
돌변	8671
신자	8672
실시간	8673
퉁	8674
비벼	8675
철저히	8676
통째	8677
마님	8678
##A	8679
속내	8680
형부	8681
외곽	8682
실탄	8683
다름	8684
약사	8685
방패	8686
뉘	8687
음주운전	8688
결의	8689
리포트	8690
빠져서	8691
얻어먹	8692
23	8693
농사	8694
추기	8695
전역	8696
연달	8697
친근	8698
동참	8699
이사회	8700
##폭탄	8701
가담	8702
토막	8703
지기	8704
폴	8705
사투리	8706
칭	8707
불러야	8708
발포	8709
마는	8710
전구	8711
한시	8712
드문	8713
바느질	8714
배관	8715
외교관	8716
상장	8717
증	8718
쏙	8719
노린다	8720
끓인	8721
고속버스	8722
통행	8723
예선	8724
형량	8725
위대	8726
숲길	8727
번역	8728
알려진	8729
초코	8730
역모	8731
그늘	8732
일본군	8733
엿보	8734
드린다	8735
##렁이	8736
##캐	8737
지금껏	8738
균형	8739
출마	8740
우의	8741
하우스	8742
초밥	8743
쓸모없	8744
사투	8745
참모	8746
발톱	8747
노골	8748
유세	8749
인구	8750
스키	8751
대역	8752
##방망이	8753
##보이	8754
계급	8755
추월	8756
빈민	8757
##뎌	8758
땄	8759
망가지	8760
분실	8761
돌려서	8762
물으면	8763
일가	8764
안무	8765
열흘	8766
명동	8767
과도	8768
분야	8769
교황	8770
떠올랐	8771
전염병	8772
장신구	8773
##래도	8774
두세	8775
미처	8776
수행원	8777
멜	8778
도넛	8779
학살	8780
시달	8781
해양	8782
당당히	8783
##뚜	8784
흐름	8785
응하	8786
##부리	8787
껍질	8788
힌트	8789
넘어갔	8790
보충	8791
##효	8792
안면	8793
의혹	8794
농부	8795
끈질기	8796
끼쳐	8797
홧	8798
기뻤	8799
송이	8800
사설	8801
미사	8802
황홀	8803
미션	8804
GPS	8805
일동	8806
물기	8807
액체	8808
내려왔	8809
매뉴얼	8810
어항	8811
무마	8812
급여	8813
명성	8814
절단	8815
##베	8816
떠오른	8817
인제	8818
혜성	8819
##조리	8820
탄식	8821
장로	8822
여객선	8823
빌릴	8824
##센트	8825
60	8826
추진	8827
##보험	8828
합숙	8829
끌어들	8830
상주	8831
챔피언	8832
본명	8833
절친	8834
배고픈	8835
푸념	8836
포격	8837
낮춰	8838
전장	8839
가르침	8840
트랙	8841
자결	8842
구내	8843
##플러	8844
외과	8845
##정리	8846
블로그	8847
우스꽝	8848
자장면	8849
인천	8850
비누	8851
소아	8852
미뤄	8853
호구	8854
어플	8855
한국인	8856
잦	8857
철회	8858
속력	8859
끌리	8860
서민	8861
##무원	8862
기괴	8863
유통	8864
전함	8865
회심	8866
안락	8867
##줄기	8868
발굴	8869
작사	8870
꾸리	8871
정숙	8872
뒤졌	8873
독수리	8874
##위원회	8875
나빴	8876
블랙	8877
치솟	8878
기존	8879
북부	8880
##U	8881
##닝	8882
##생명	8883
탄원서	8884
수조	8885
가라앉히	8886
##딧	8887
어울릴	8888
느	8889
##혁	8890
경청	8891
아씨	8892
고위	8893
놓칠	8894
##48	8895
심경	8896
진도	8897
마비	8898
계절	8899
R	8900
고도	8901
부채	8902
엔딩	8903
서핑	8904
왜냐면	8905
##와라	8906
올라간	8907
고요	8908
솟아	8909
중독자	8910
암시	8911
##45	8912
뺐	8913
##박이	8914
금요일	8915
파스	8916
마술사	8917
##댈	8918
하찮	8919
기일	8920
##도그	8921
위성	8922
미숙	8923
대강	8924
커져	8925
되돌	8926
프런트	8927
터치	8928
잠잠	8929
드려야	8930
영역	8931
휘둘	8932
팍	8933
결석	8934
그랬었	8935
종용	8936
고가	8937
불의	8938
흥정	8939
핵심	8940
##숭	8941
법인	8942
살벌	8943
##맥주	8944
사악	8945
조합	8946
동호	8947
인어	8948
부근	8949
전세	8950
마쳤	8951
##구이	8952
원한다면	8953
극도	8954
##뼈	8955
바리	8956
신용카드	8957
캡슐	8958
##센	8959
땅콩	8960
불러오	8961
제스처	8962
지부	8963
탐사선	8964
보복	8965
##업소	8966
책자	8967
미움	8968
##껏	8969
윽	8970
팔리	8971
##라이트	8972
고마	8973
형광	8974
##덩어리	8975
여장	8976
샐러드	8977
개수	8978
소수	8979
읍내	8980
원만	8981
##낑	8982
##낭	8983
난쟁이	8984
샌드	8985
##레인	8986
수법	8987
들어도	8988
맙	8989
##깨	8990
우뚝	8991
산산	8992
낑	8993
비법	8994
폭우	8995
셀	8996
해결책	8997
신용	8998
거듭	8999
하하하	9000
사안	9001
따를	9002
인디언	9003
진로	9004
램프	9005
철제	9006
##의원	9007
기력	9008
##념	9009
아까운	9010
##T	9011
벌어졌	9012
후임	9013
퇴직금	9014
자문	9015
누이	9016
해군	9017
주막	9018
##고시	9019
불현듯	9020
검진	9021
베풀	9022
안달	9023
초록색	9024
맛보	9025
라이브	9026
불러도	9027
현대	9028
흘러내리	9029
통곡	9030
야식	9031
지연	9032
횡령	9033
##나라	9034
스트레칭	9035
서자	9036
##선지	9037
사흘	9038
오를	9039
외제	9040
먹히	9041
바나나	9042
페달	9043
##G	9044
단번에	9045
##바퀴	9046
대학원	9047
우아	9048
안내문	9049
여가	9050
육체	9051
진솔	9052
면허	9053
타인	9054
넘길	9055
##꽁	9056
캐나다	9057
청소년	9058
빌미	9059
무기력	9060
지배	9061
아저	9062
##챙	9063
꺼려	9064
하마	9065
유능	9066
유물	9067
교관	9068
이론	9069
헷갈리	9070
마네	9071
##보호	9072
꼬치	9073
소신	9074
예배	9075
탄성	9076
유난히	9077
##덜미	9078
은밀히	9079
느긋	9080
다수	9081
마포	9082
사퇴	9083
이승	9084
액정	9085
그리곤	9086
이끈	9087
##뺌	9088
싸인	9089
한입	9090
##롬	9091
##거림	9092
##뱅이	9093
석유	9094
입히	9095
해동	9096
##렛	9097
선포	9098
슈퍼마켓	9099
구기	9100
특징	9101
기저귀	9102
불발	9103
미세	9104
던졌	9105
누드	9106
나아지	9107
숨겨져	9108
휘발유	9109
알레르기	9110
해산	9111
##롤	9112
시력	9113
이민자	9114
고구마	9115
구인	9116
선교사	9117
점퍼	9118
나무라	9119
고전	9120
고시원	9121
##므로	9122
생사	9123
욕망	9124
말소	9125
차분히	9126
시끌	9127
마구잡이	9128
지치	9129
트레이닝	9130
포인트	9131
펄	9132
밥그릇	9133
당근	9134
민감	9135
건널	9136
제국	9137
했어도	9138
##D	9139
콱	9140
스프레이	9141
배트	9142
세입자	9143
D	9144
꽃잎	9145
아군	9146
저걸	9147
##로로	9148
난폭	9149
지지율	9150
표하	9151
발가락	9152
탄생	9153
서늘	9154
커버	9155
##배우	9156
서적	9157
작업장	9158
스노	9159
##오리	9160
최신	9161
보스턴	9162
직후	9163
토대	9164
항해	9165
위아래	9166
상실	9167
복종	9168
막아내	9169
장악	9170
##슬리	9171
##쩔	9172
꽁	9173
바쳐	9174
인화	9175
갖추	9176
투신	9177
부임	9178
##상의	9179
고비	9180
어정	9181
옹호	9182
꼴찌	9183
비로소	9184
##지어	9185
기체	9186
도달	9187
위급	9188
부딪쳐	9189
이렇	9190
남조선	9191
마르	9192
큐	9193
어려웠	9194
치장	9195
해임	9196
용품	9197
사령부	9198
나기	9199
껍데기	9200
여대생	9201
치아	9202
영입	9203
##커녕	9204
##평가	9205
법무	9206
기초	9207
메스	9208
구상	9209
수용	9210
소질	9211
입단	9212
포도주	9213
벤츠	9214
##세우	9215
##대교	9216
볼륨	9217
희한	9218
말렸	9219
지뢰	9220
통지	9221
폭격기	9222
주최	9223
육아	9224
##놀림	9225
일출	9226
적용	9227
용납	9228
징벌	9229
레버	9230
여태껏	9231
워	9232
##삽	9233
##돌이	9234
대여	9235
투숙	9236
열등	9237
늘어나	9238
블라인드	9239
매매	9240
부러지	9241
돌격	9242
건져	9243
자위	9244
제치	9245
무역	9246
뒷면	9247
상식	9248
안치	9249
합치	9250
툴	9251
즉석	9252
##다지	9253
외워	9254
어의	9255
지긋	9256
표출	9257
운행	9258
보약	9259
기지개	9260
숯	9261
갈림길	9262
가네	9263
패널	9264
원본	9265
골동	9266
##어머니	9267
붙였	9268
뾰족	9269
글러브	9270
줄여	9271
사치	9272
##칭	9273
안다는	9274
바탕	9275
개최	9276
혁명	9277
자각	9278
##고래	9279
앉혀	9280
두꺼운	9281
꼬집	9282
이주	9283
선상	9284
박자	9285
넘어서	9286
장착	9287
검열	9288
관상	9289
상영	9290
자정	9291
로또	9292
대교	9293
저렴	9294
거닐	9295
순례	9296
##멘	9297
##채기	9298
갈라진	9299
바꿔야	9300
##잎	9301
거위	9302
##장난	9303
완강	9304
지나갈	9305
지정	9306
호흡기	9307
마스터	9308
##퉁	9309
주체	9310
밀착	9311
우두머리	9312
설사	9313
벅차	9314
넘어오	9315
재결	9316
무수	9317
주물	9318
은폐	9319
빼곡	9320
어딘	9321
##재료	9322
거든	9323
감수	9324
이득	9325
매듭	9326
서너	9327
제이	9328
표창	9329
잭	9330
천식	9331
##룬	9332
어느덧	9333
IT	9334
휩쓸려	9335
고자	9336
타령	9337
육지	9338
##시설	9339
상냥	9340
카운트	9341
달랐	9342
지독	9343
끊겼	9344
&	9345
무지개	9346
찐	9347
##맡	9348
애절	9349
여의	9350
롤	9351
명인	9352
여정	9353
##씀	9354
옮	9355
혼례	9356
출혈	9357
유행	9358
줄기	9359
팬클럽	9360
핼	9361
회관	9362
##K	9363
지구대	9364
여신	9365
일격	9366
징역	9367
체납	9368
투구	9369
##갓	9370
생생	9371
##틱	9372
원룸	9373
손쉽	9374
줄어들	9375
시식	9376
장문	9377
항소	9378
키운	9379
상당	9380
제복	9381
동동	9382
족보	9383
수수께끼	9384
##납니다	9385
던전	9386
상여	9387
진단서	9388
일시	9389
흔한	9390
반란	9391
##학생	9392
낯익	9393
떨어뜨려	9394
그다지	9395
띤다	9396
##시티	9397
연단	9398
벌어질	9399
##넘기	9400
갈수록	9401
식기	9402
눈여겨	9403
차질	9404
식이	9405
배회	9406
샌	9407
싸구려	9408
롯데	9409
변형	9410
때로	9411
빼먹	9412
프린스	9413
##집행	9414
지껄	9415
이슈	9416
뚫린	9417
자판	9418
악어	9419
끄집	9420
하사	9421
느려	9422
대견	9423
부치	9424
##랍	9425
조형	9426
지난날	9427
논란	9428
##빼	9429
출세	9430
과다	9431
##꺄	9432
200	9433
##송이	9434
양지	9435
피살	9436
열매	9437
장거리	9438
구별	9439
나눠서	9440
이력	9441
빨대	9442
연수	9443
당사자	9444
배역	9445
스트	9446
이라고	9447
퀘스트	9448
상념	9449
무뚝뚝	9450
아홉	9451
##부들	9452
미녀	9453
집합	9454
태국	9455
계약금	9456
더워	9457
대조	9458
##저리	9459
팍팍	9460
엘레	9461
사당	9462
발짝	9463
적합	9464
에스	9465
본래	9466
사육	9467
국방부	9468
줄줄이	9469
체질	9470
지난주	9471
반쪽	9472
소중히	9473
톱	9474
더욱더	9475
띄우	9476
카바	9477
명분	9478
목공	9479
시행	9480
통조림	9481
기껏	9482
그럼에도	9483
##서니	9484
조개	9485
동그라미	9486
일각	9487
후유증	9488
현명	9489
몽땅	9490
들이마	9491
귤	9492
공문	9493
압력	9494
모친	9495
나사	9496
어두	9497
##로웠	9498
LP	9499
##몰	9500
계획서	9501
##은행	9502
영양제	9503
금발	9504
유대인	9505
흐려	9506
##땡	9507
목수	9508
익히	9509
포착	9510
고성	9511
서울대	9512
소총	9513
못합니다	9514
아유	9515
돌연변이	9516
제수	9517
거미	9518
밀어붙이	9519
후문	9520
엑	9521
광산	9522
아낙	9523
적대	9524
슥	9525
경쾌	9526
잠겼	9527
울분	9528
##나이	9529
컴	9530
크레	9531
실리	9532
향해서	9533
겹	9534
어루만지	9535
##멍	9536
##영장	9537
화기애애	9538
국화	9539
연체	9540
그친	9541
##쿵	9542
21	9543
자장	9544
시멘트	9545
미로	9546
방탄	9547
훔	9548
파산	9549
어긋나	9550
빡빡	9551
내색	9552
내비게이션	9553
##읍	9554
모서리	9555
주선	9556
##꼭지	9557
대상자	9558
가설	9559
여수	9560
이천	9561
##타고	9562
주택가	9563
재건	9564
눈썹	9565
소외	9566
대타	9567
##릉	9568
공모	9569
영화사	9570
도사	9571
해커	9572
빈소	9573
돌연	9574
뗏	9575
흩어지	9576
꾸준히	9577
한양	9578
##깁니다	9579
케	9580
바비큐	9581
없앨	9582
도운	9583
양념	9584
불면증	9585
퇴직	9586
멕시코	9587
살렸	9588
##붕	9589
남산	9590
서지	9591
##M	9592
촉촉	9593
곡식	9594
가망	9595
좁혀	9596
영영	9597
락	9598
깨졌	9599
참관	9600
칵테일	9601
의구심	9602
위자료	9603
독려	9604
트레이너	9605
흐린	9606
회담	9607
미남	9608
신선	9609
어처구니	9610
선서	9611
외지	9612
펫	9613
##공주	9614
찔렀	9615
자격증	9616
내시	9617
특공	9618
매진	9619
역부족	9620
과하	9621
##경기	9622
##다드	9623
업자	9624
건의	9625
감춰	9626
##뜨렸	9627
조아	9628
동쪽	9629
자석	9630
주술	9631
벽화	9632
##지대	9633
##펜	9634
바꿔서	9635
박쥐	9636
훈계	9637
투여	9638
악성	9639
호칭	9640
이탈리아	9641
격정	9642
논쟁	9643
교전	9644
80	9645
프레젠테이션	9646
##수아	9647
견인	9648
적절	9649
급기야	9650
후보자	9651
퇴치	9652
##뚤	9653
##푼	9654
쾌	9655
미혼모	9656
냉각	9657
영월	9658
종합	9659
이보	9660
조끼	9661
정찰	9662
벼랑	9663
갓난	9664
무너질	9665
대관	9666
깜깜	9667
구제	9668
후미	9669
틈새	9670
패기	9671
찧	9672
버거	9673
프리	9674
몸살	9675
##번에	9676
별자리	9677
V	9678
사령	9679
비탈	9680
소견	9681
퍼졌	9682
각하	9683
호스트	9684
터무니없	9685
혈압	9686
장남	9687
처마	9688
마크	9689
인격	9690
폐업	9691
말끔	9692
요구르트	9693
이하	9694
스튜어	9695
가늘	9696
##케이크	9697
사신	9698
##쾅	9699
모레	9700
심폐	9701
죠	9702
달빛	9703
##지역	9704
휩싸여	9705
챙겨야	9706
총장	9707
철새	9708
비즈니스	9709
##하이	9710
사역	9711
설립	9712
어선	9713
지켜볼	9714
매물	9715
매트리스	9716
번져	9717
비단	9718
의학	9719
근로	9720
심화	9721
갖춘	9722
##차례	9723
회귀	9724
솜	9725
댐	9726
총무	9727
##패스	9728
초록	9729
펀드	9730
단단	9731
매주	9732
제비	9733
위안	9734
##받이	9735
아부	9736
하나같이	9737
내무	9738
격분	9739
교제	9740
말기	9741
예지	9742
어필	9743
고립	9744
하천	9745
피켓	9746
수여	9747
사나	9748
포상금	9749
썰렁	9750
우회	9751
전시관	9752
역전	9753
봉쇄	9754
##씌	9755
시의	9756
빼놓	9757
사거리	9758
스크랩	9759
피시	9760
간청	9761
누리	9762
포스트	9763
매너	9764
스웨	9765
다이	9766
꿰뚫	9767
불합격	9768
가계	9769
상이	9770
현자	9771
공략	9772
초기	9773
##타기	9774
동남아	9775
사이다	9776
세울	9777
고하	9778
최소	9779
에어컨	9780
바비	9781
##모습	9782
덴	9783
##셔츠	9784
부실	9785
유적	9786
대국	9787
모았	9788
풀려났	9789
파라	9790
아쉬움	9791
도무지	9792
아실	9793
획득	9794
수제	9795
집시	9796
빙그레	9797
풀릴	9798
보여야	9799
그리운	9800
##공사	9801
수속	9802
억누르	9803
예뻤	9804
토크	9805
망상	9806
보름	9807
꺼냈	9808
일병	9809
48	9810
정산	9811
허망	9812
숍	9813
동태	9814
커졌	9815
군무	9816
따돌림	9817
어찌나	9818
으르	9819
딜	9820
광부	9821
사리	9822
찾아낼	9823
구독	9824
채택	9825
버전	9826
정수	9827
수소	9828
연상	9829
씨앗	9830
대부	9831
퍼트	9832
혹은	9833
새겨	9834
청산	9835
파트	9836
화이트	9837
뽑힌	9838
수비	9839
창립	9840
뻘	9841
지위	9842
진영	9843
졸리	9844
모처럼	9845
시리	9846
꽝	9847
세웠	9848
맞췄	9849
학비	9850
조율	9851
용이	9852
흘렀	9853
베이비	9854
줄줄	9855
정성껏	9856
막혔	9857
미묘	9858
까만	9859
퍼레이드	9860
갇	9861
항공	9862
##콘	9863
매니	9864
불끈	9865
시사회	9866
##엽	9867
##옆	9868
문제집	9869
우와	9870
처해	9871
신속	9872
도가	9873
지체	9874
##놀	9875
퇴장	9876
들릴	9877
휴학	9878
춰	9879
끌어올린	9880
묘비	9881
쌌	9882
이룰	9883
디스	9884
꾸몄	9885
기왕	9886
하느님	9887
호두	9888
신임	9889
정한	9890
대열	9891
물가	9892
예수	9893
배고	9894
구마	9895
##레일	9896
검증	9897
가르칠	9898
LA	9899
바이	9900
실마리	9901
빗물	9902
냉담	9903
프라이	9904
수년	9905
은행나무	9906
관아	9907
여럿	9908
더블	9909
연기자	9910
벚꽃	9911
늘어지	9912
##펫	9913
##의식	9914
푸드	9915
출두	9916
그지	9917
돌발	9918
##셜	9919
첫째	9920
떨쳐	9921
##공간	9922
치유	9923
와이어	9924
대야	9925
기꺼이	9926
고이	9927
고군분투	9928
여주인공	9929
업계	9930
##뜬	9931
##케이드	9932
하숙	9933
신간	9934
노린	9935
머신	9936
늦추	9937
특전	9938
논리	9939
##험	9940
날아다니	9941
자질	9942
취임식	9943
이니	9944
사부	9945
300	9946
내실	9947
정교	9948
원자력	9949
우여곡절	9950
##주택	9951
인권	9952
문화재	9953
달라서	9954
코디	9955
뒈	9956
일으킨	9957
직장인	9958
글로	9959
전직	9960
수현	9961
상공	9962
석양	9963
에이즈	9964
관직	9965
추수	9966
특기	9967
기억력	9968
좇	9969
유모차	9970
합병	9971
##멀	9972
협곡	9973
밤중	9974
사로잡	9975
##소문	9976
뀐	9977
넘버	9978
코미디	9979
척도	9980
덩달	9981
시상	9982
고시	9983
학부	9984
##겋	9985
##앗	9986
열릴	9987
경과	9988
나약	9989
두어	9990
허술	9991
대왕	9992
가지런	9993
넉넉	9994
최상위	9995
입장권	9996
사칭	9997
전산	9998
항변	9999
에로	10000
샴푸	10001
드린	10002
물감	10003
챙길	10004
##꿀	10005
아랍	10006
실습	10007
댕	10008
학장	10009
##정신	10010
기념품	10011
비바람	10012
토마토	10013
부도	10014
져야	10015
어려우	10016
독살	10017
번복	10018
인가	10019
게스트	10020
연민	10021
해산물	10022
아련	10023
전수	10024
후면	10025
##촬	10026
맏	10027
여지	10028
대구	10029
달라져	10030
NP	10031
화요일	10032
##꼬리	10033
느닷없이	10034
빠짐없이	10035
반죽	10036
주례	10037
느껴졌	10038
다룰	10039
월남	10040
##주의자	10041
신약	10042
70	10043
쌩	10044
단다	10045
튼튼	10046
화약	10047
석상	10048
학예	10049
내외	10050
##꼼	10051
조부	10052
DVD	10053
##뻑	10054
사로잡힌	10055
아휴	10056
개성	10057
모진	10058
질식	10059
주어진	10060
기사단	10061
장래	10062
떳떳	10063
각도	10064
굽히	10065
불태우	10066
거센	10067
안티	10068
이뤄	10069
늘려	10070
큐브	10071
해소	10072
사나이	10073
댄서	10074
친밀	10075
중고차	10076
무얼	10077
진한	10078
튀기	10079
살아났	10080
저마다	10081
태세	10082
관군	10083
주유	10084
어설픈	10085
이룬	10086
##에고	10087
부츠	10088
대량	10089
##앨	10090
기우	10091
수임	10092
첨부	10093
체하	10094
해장국	10095
지라	10096
밝혀내	10097
초상	10098
##벗	10099
대해선	10100
이글	10101
한없이	10102
캘리포니아	10103
나물	10104
셋째	10105
따른	10106
면허증	10107
##슬러	10108
병상	10109
##스타일	10110
상실감	10111
맞춘	10112
미스터리	10113
부풀	10114
물의	10115
해병대	10116
끌어들이	10117
열렸	10118
전형	10119
송곳	10120
왼	10121
##땀	10122
항암	10123
서울시	10124
실망감	10125
돌고래	10126
그로	10127
요금	10128
직책	10129
물들	10130
과격	10131
##몸	10132
정강	10133
##나미	10134
주거	10135
호적	10136
너스	10137
무산	10138
사찰	10139
뻔히	10140
성향	10141
패스	10142
##흰	10143
격투기	10144
흡입	10145
##매매	10146
인계	10147
주주	10148
가르쳤	10149
리듬	10150
덧	10151
하루하루	10152
힘주	10153
배짱	10154
케이블	10155
증서	10156
위약금	10157
쪼개	10158
하강	10159
영향력	10160
실물	10161
소홀	10162
분류	10163
강탈	10164
야산	10165
##몬	10166
이만큼	10167
돋보	10168
블라우스	10169
허기	10170
룰	10171
슛	10172
흐른	10173
앗	10174
과목	10175
절로	10176
대성	10177
막말	10178
구애	10179
앞날	10180
자서	10181
필기	10182
책봉	10183
콘크리트	10184
##쑤	10185
달랑	10186
정착	10187
사후	10188
두려	10189
지지자	10190
싸워야	10191
비밀리	10192
흘렸	10193
마스	10194
미터	10195
개방	10196
위증	10197
현란	10198
드라이	10199
가져야	10200
빈틈	10201
##매장	10202
피아니스트	10203
잔디밭	10204
##가시	10205
벌집	10206
이복	10207
##중독	10208
달려왔	10209
공정	10210
초원	10211
유해	10212
금전	10213
유람선	10214
유저	10215
질렀	10216
자의	10217
##걱	10218
흑백	10219
환전	10220
마늘	10221
##굣	10222
원서	10223
검색어	10224
엠	10225
꾸려	10226
날렸	10227
짊어지	10228
##어날	10229
오거	10230
엉터리	10231
늙은이	10232
찰리	10233
공조	10234
##듭니다	10235
시청자	10236
피에	10237
입대	10238
시간대	10239
매도	10240
임상	10241
저편	10242
물려주	10243
개봉	10244
알릴	10245
피했	10246
기울여	10247
맴돌	10248
클리어	10249
도쿄	10250
궁금증	10251
경시	10252
브라이언	10253
캠퍼스	10254
무효	10255
새긴	10256
덮여	10257
스탠	10258
거둬	10259
낙원	10260
비방	10261
왕위	10262
갠	10263
타워	10264
환기	10265
##뢰	10266
산업	10267
빨아들	10268
음향	10269
##껄	10270
거미줄	10271
##공격	10272
##들리	10273
수혈	10274
유사	10275
호박	10276
합리	10277
껐	10278
실전	10279
뺄	10280
사사	10281
##딘	10282
혐오	10283
사업가	10284
역적	10285
꼰	10286
##윽	10287
무명	10288
안타까움	10289
빈손	10290
사돈	10291
성탄	10292
만점	10293
밀가루	10294
권위	10295
정액	10296
볶	10297
상급	10298
소고기	10299
햇볕	10300
강행	10301
키운다	10302
패스트푸드	10303
찬물	10304
요가	10305
바친	10306
언더	10307
장애물	10308
방지	10309
불사	10310
클래식	10311
아름다워	10312
전자레인지	10313
스위트	10314
저어	10315
무신	10316
정치인	10317
힘겨운	10318
공평	10319
치러야	10320
한결	10321
옵니다	10322
고독	10323
복숭아	10324
기갑	10325
틈타	10326
획	10327
예리	10328
##팥	10329
동그랗	10330
북돋	10331
폴더	10332
저금	10333
왁	10334
갑작스레	10335
메이드	10336
미수	10337
##레인지	10338
비위	10339
캐치	10340
디제이	10341
굴뚝	10342
오프닝	10343
##파리	10344
신성	10345
제작자	10346
어림	10347
정화	10348
품위	10349
기한	10350
건조	10351
성별	10352
배송	10353
플로	10354
장터	10355
리딩	10356
파벌	10357
유족	10358
휩쓸	10359
사임	10360
에워	10361
시종	10362
후원금	10363
##복지	10364
이형	10365
핑	10366
책임져야	10367
머물러	10368
싱가포르	10369
승자	10370
##행사	10371
마우스	10372
동갑	10373
여객기	10374
지망	10375
##코지	10376
담근	10377
고스	10378
의장	10379
부착	10380
빤	10381
내려갔	10382
백신	10383
출간	10384
냉소	10385
클리닉	10386
공소	10387
간격	10388
미아	10389
대검	10390
##룻	10391
놓이	10392
##랗	10393
투항	10394
불기	10395
온실	10396
돌입	10397
회의장	10398
청룡	10399
대청	10400
##지원	10401
침범	10402
블루스	10403
톡톡	10404
벼락	10405
일까	10406
쿡	10407
##렇게	10408
그러니깐	10409
타운	10410
배워야	10411
너지	10412
횃불	10413
벨트	10414
청중	10415
반전	10416
##음료	10417
여하튼	10418
타고난	10419
너구리	10420
출생	10421
떠받	10422
순조	10423
배우자	10424
일전	10425
고분	10426
탈퇴	10427
플라스틱	10428
폈	10429
따라야	10430
파헤치	10431
철학	10432
굵	10433
상병	10434
참전	10435
남부	10436
도용	10437
##리스트	10438
조상	10439
민간	10440
뒤틀	10441
집회	10442
더더욱	10443
화목	10444
직위	10445
:	10446
집게	10447
방송사	10448
국세청	10449
##홍	10450
파고들	10451
등등	10452
보살피	10453
##크림	10454
##고양이	10455
성벽	10456
##레이크	10457
팝콘	10458
기각	10459
과학자	10460
정해졌	10461
오케스트라	10462
교주	10463
처했	10464
##가운	10465
이어진	10466
결전	10467
미술품	10468
진통	10469
##사태	10470
기류	10471
헤쳐	10472
평판	10473
토사	10474
킬	10475
주파수	10476
구부	10477
분홍색	10478
해태	10479
독감	10480
다스	10481
들락	10482
시켜야	10483
황량	10484
철도	10485
제때	10486
조인	10487
거시	10488
##올리	10489
사납	10490
납품	10491
##순위	10492
##조치	10493
쫄	10494
붕어	10495
강국	10496
##들여	10497
대대	10498
물든	10499
팔다리	10500
서두	10501
크루즈	10502
노란색	10503
호리	10504
질리	10505
지검	10506
##논	10507
예비	10508
고교	10509
아닐지	10510
명상	10511
집사람	10512
없앤	10513
##트라	10514
남극	10515
바싹	10516
카피	10517
한단	10518
건너가	10519
놨다	10520
이목	10521
중반	10522
서쪽	10523
핵탄두	10524
노조원	10525
카레	10526
명확	10527
정밀	10528
이지	10529
##완	10530
나섰	10531
##서리	10532
치료비	10533
매운	10534
##단지	10535
솔로	10536
수돗	10537
두려웠	10538
겨루	10539
갈라지	10540
맞이해	10541
내려야	10542
이부	10543
오래오래	10544
는	10545
이집트	10546
##밉	10547
뒷산	10548
좌표	10549
사법	10550
전시실	10551
영구	10552
임하	10553
피임	10554
##겨운	10555
중력	10556
파손	10557
합의서	10558
나열	10559
팔라	10560
물러가	10561
고의	10562
몸무게	10563
내성	10564
알래스카	10565
완수	10566
경운	10567
보류	10568
##멤	10569
22	10570
청춘	10571
세일	10572
했으나	10573
출현	10574
풍기	10575
드립니다	10576
사드	10577
이끄	10578
로고	10579
수월	10580
본드	10581
##렘	10582
매트	10583
하수도	10584
디지털	10585
색소폰	10586
쿠션	10587
과잉	10588
제도	10589
재난	10590
신변	10591
컨트롤	10592
O	10593
M	10594
##슴	10595
가로지르	10596
조성	10597
가차	10598
본다는	10599
얇	10600
이겨야	10601
허물	10602
##팡	10603
움직였	10604
떠다니	10605
서브	10606
송신	10607
##줌	10608
붉은색	10609
임대	10610
효율	10611
꽁꽁	10612
합법	10613
체면	10614
선행	10615
##카스	10616
서둘러야	10617
아차	10618
몹	10619
나아질	10620
발급	10621
찾아냈	10622
##깍	10623
선풍기	10624
돌릴	10625
경선	10626
부쳐	10627
노동	10628
쓰일	10629
외동	10630
흐	10631
##줏	10632
팔린	10633
실종자	10634
터키	10635
주소지	10636
프랑스어	10637
뻐	10638
가혹	10639
생물	10640
댔	10641
뉴	10642
이태리	10643
무예	10644
결사	10645
튜브	10646
로이드	10647
하버드	10648
팔렸	10649
마티	10650
사용법	10651
##쑥	10652
머리칼	10653
서바이벌	10654
대적	10655
휴직	10656
##무늬	10657
귀퉁이	10658
청취자	10659
##랩	10660
용인	10661
의경	10662
##거릴	10663
스틱	10664
날로	10665
사슬	10666
페이스	10667
최루	10668
업로드	10669
##마루	10670
##타운	10671
오로지	10672
도덕	10673
일으켰	10674
환대	10675
소탕	10676
##캔	10677
양조	10678
단풍	10679
참혹	10680
납니다	10681
클로	10682
호주머니	10683
답례	10684
구사	10685
혜택	10686
아름다움	10687
바깥쪽	10688
포트폴리오	10689
귀중	10690
눈감	10691
조이	10692
수명	10693
##이브	10694
대낮	10695
##솥	10696
##줍	10697
##R	10698
흠집	10699
세관	10700
손보	10701
순정	10702
미운	10703
그야	10704
##무사	10705
호프	10706
퇴임	10707
항	10708
비결	10709
샛	10710
엷	10711
어린이집	10712
##다닐	10713
이외	10714
편견	10715
청구서	10716
뉴질랜드	10717
대공	10718
식자재	10719
연거푸	10720
조기	10721
뚜	10722
되돌아가	10723
##d	10724
밝혔	10725
콘테스트	10726
이와	10727
끼니	10728
육식	10729
아녀	10730
비정	10731
오죽	10732
수도원	10733
팝	10734
시안	10735
퇴각	10736
정현	10737
따라갔	10738
수재	10739
덜컥	10740
고뇌	10741
원더	10742
튜	10743
댈	10744
다스리	10745
가락	10746
대안	10747
재계	10748
##운드	10749
특유	10750
확장	10751
외벽	10752
##륜	10753
##우라	10754
도서	10755
개그	10756
신병	10757
##연히	10758
박형	10759
분양	10760
거스	10761
독점	10762
연희	10763
로맨스	10764
애드	10765
의하	10766
##차기	10767
##꼴	10768
##넷	10769
수동	10770
가명	10771
조항	10772
##레이터	10773
좀처럼	10774
크레인	10775
세무	10776
한글	10777
구세	10778
오이	10779
노선	10780
과감	10781
##프트	10782
##무장	10783
위생	10784
늘어선	10785
##스타	10786
대뜸	10787
쓰리	10788
확고	10789
도배	10790
앞장	10791
삼가	10792
정오	10793
측근	10794
오염	10795
찬송	10796
작곡가	10797
궤	10798
목요일	10799
무릅쓰	10800
##망이	10801
승차	10802
번거	10803
손수	10804
배포	10805
소나기	10806
일손	10807
버스터	10808
##감사	10809
열렬	10810
적금	10811
돗	10812
비석	10813
끼우	10814
폭동	10815
보이스	10816
잔잔	10817
낮잠	10818
어긴	10819
뭉쳐	10820
풀밭	10821
마찰	10822
##꿉	10823
돔	10824
온전	10825
무시무시	10826
##벌이	10827
빰	10828
렌터카	10829
벌였	10830
##싶	10831
뾰	10832
평행	10833
절정	10834
틀림없이	10835
러시아인	10836
추천서	10837
맞출	10838
준다면	10839
개소	10840
짭	10841
주름	10842
##가와	10843
수납	10844
남겨둔	10845
조우	10846
두꺼비	10847
반반	10848
로열	10849
내력	10850
외삼촌	10851
가축	10852
프로듀서	10853
서울역	10854
후손	10855
휴일	10856
##케이	10857
납작	10858
베이	10859
바가지	10860
고쳤	10861
에이전	10862
불붙	10863
실기	10864
경감	10865
진주	10866
여덟	10867
##맣	10868
##스키	10869
시사	10870
부처	10871
냇	10872
##클로	10873
남길	10874
핏줄	10875
평양	10876
##듬	10877
##다닌	10878
##감각	10879
##걸스	10880
인신	10881
암흑	10882
##코스	10883
집결	10884
27	10885
박경	10886
##버릇	10887
공무	10888
조급	10889
펄럭	10890
급격히	10891
대출금	10892
자니	10893
##쥐	10894
자욱	10895
수리비	10896
알라	10897
돛	10898
고상	10899
S	10900
홱	10901
훼	10902
전멸	10903
육상	10904
차명	10905
구금	10906
명하	10907
어뢰	10908
편집자	10909
독신	10910
더해	10911
포수	10912
일수	10913
상소	10914
성급	10915
저자	10916
행각	10917
돌기	10918
무너졌	10919
스캔	10920
돼도	10921
뽕	10922
빠뜨리	10923
사춘기	10924
모스	10925
받아들인	10926
거물	10927
사회생활	10928
통일	10929
통할	10930
강민	10931
노동조합	10932
재현	10933
지켜봐야	10934
한지	10935
매복	10936
공매도	10937
살포	10938
부의	10939
심술	10940
##진다는	10941
일본어	10942
##플레이	10943
줄기세포	10944
킴	10945
집필	10946
부렸	10947
##출혈	10948
##쌀	10949
안보	10950
백지	10951
드러난	10952
머문	10953
사무장	10954
물방울	10955
독단	10956
선출	10957
부락	10958
##정지	10959
철판	10960
귀하	10961
루머	10962
로마	10963
##흐	10964
전동차	10965
외식	10966
리드	10967
몰아가	10968
올려야	10969
파마	10970
문제점	10971
공인	10972
민주	10973
##호텔	10974
소방서	10975
시즌	10976
고스란히	10977
주범	10978
알렸	10979
화답	10980
낭만	10981
후반	10982
교류	10983
##쁩	10984
##P	10985
담가	10986
발전기	10987
합세	10988
##부사	10989
관악	10990
이체	10991
주먹밥	10992
종아리	10993
견학	10994
커질	10995
밀렸	10996
거쳐	10997
밀양	10998
모기	10999
범위	11000
재력	11001
변함없	11002
스카이	11003
차근차근	11004
두툼	11005
박탈	11006
관문	11007
용산	11008
즐거	11009
72	11010
마진	11011
그럭저럭	11012
##O	11013
외국어	11014
여념	11015
올바른	11016
##마사	11017
치부	11018
천진	11019
바리스타	11020
버텼	11021
레이스	11022
교차로	11023
보건소	11024
예술가	11025
굴착	11026
합동	11027
동족	11028
화사	11029
세미나	11030
피크	11031
##드라	11032
원자로	11033
시련	11034
##구요	11035
깨달음	11036
##리나	11037
독재	11038
우기	11039
눈살	11040
고층	11041
건전	11042
##J	11043
과시	11044
소박	11045
다이빙	11046
시댁	11047
자폐	11048
##홉	11049
##로우	11050
녹색	11051
전망	11052
캡	11053
예방	11054
열람	11055
캄캄	11056
자만	11057
대변인	11058
켰	11059
피부과	11060
적막	11061
챈	11062
미신	11063
적임자	11064
푸르	11065
찌개	11066
착오	11067
식품	11068
물류	11069
기내	11070
건설사	11071
파면	11072
택한	11073
화끈	11074
아이언맨	11075
방영	11076
럭셔리	11077
지울	11078
적성	11079
##빨리	11080
샹	11081
복통	11082
수천	11083
휑	11084
돌렸	11085
끼친	11086
파인	11087
##무지	11088
반듯	11089
왜냐하면	11090
뽀	11091
수험	11092
공부방	11093
브런치	11094
폴리스	11095
##마이	11096
근방	11097
기부금	11098
##로이	11099
##c	11100
분개	11101
현지	11102
좌회전	11103
함박	11104
##로나	11105
CIA	11106
정거장	11107
부끄	11108
공수	11109
사발	11110
시추	11111
관저	11112
설탕	11113
캐시	11114
걸요	11115
카펫	11116
가해	11117
요인	11118
신앙	11119
대만	11120
##샌	11121
신지	11122
빙하	11123
만끽	11124
늘리	11125
공과	11126
천박	11127
부유	11128
곤경	11129
상선	11130
어허	11131
써먹	11132
##군데	11133
일으킬	11134
오도	11135
산악	11136
측정기	11137
떠들썩	11138
절개	11139
추구	11140
등반	11141
아마추어	11142
총리	11143
축사	11144
##아나	11145
토스트	11146
소각	11147
재기	11148
폐기물	11149
무언	11150
자조	11151
소나타	11152
##k	11153
인증	11154
헤헤	11155
입점	11156
크라운	11157
해장	11158
문방	11159
##릭	11160
개도	11161
##제비	11162
망명	11163
만행	11164
기고	11165
불상	11166
##므	11167
깰	11168
F	11169
완치	11170
엘리자베스	11171
레오	11172
노점상	11173
본선	11174
참치	11175
암벽	11176
쉬울	11177
청바지	11178
브래	11179
시일	11180
진격	11181
정권	11182
간곡	11183
배제	11184
이제껏	11185
독성	11186
번번이	11187
달성	11188
몸통	11189
미혼	11190
##껍	11191
부딪혔	11192
엔지니어	11193
애니	11194
비관	11195
경쟁자	11196
강경	11197
빗방울	11198
지나갔	11199
굴복	11200
유전	11201
발의	11202
나머	11203
패턴	11204
뻑	11205
공군	11206
선의	11207
전우	11208
청원	11209
절실	11210
다이얼	11211
즉위	11212
어우	11213
가야금	11214
이루어진다	11215
고여	11216
고쳐야	11217
협업	11218
군산	11219
피라미드	11220
그이	11221
예매	11222
완공	11223
음원	11224
강박	11225
캣	11226
몰아내	11227
하단	11228
새겨져	11229
제재	11230
헹	11231
실업	11232
##촉	11233
입김	11234
비자	11235
가래	11236
식빵	11237
##궤	11238
##흥	11239
대금	11240
뭍	11241
수도사	11242
현기증	11243
가꾸	11244
허리띠	11245
끌려갔	11246
단말기	11247
저축	11248
숨지	11249
소설가	11250
##냅	11251
달달	11252
##딜	11253
내비	11254
서기	11255
끝없이	11256
시들	11257
가뜩이나	11258
모셨	11259
소셜	11260
종신	11261
보름달	11262
쓴다는	11263
밝힌	11264
모신	11265
버려야	11266
단발	11267
참으로	11268
##용지	11269
체인	11270
병아리	11271
골대	11272
상궁	11273
닥터	11274
베드	11275
외할머니	11276
간대	11277
타오르	11278
초과	11279
골절	11280
고삐	11281
수심	11282
용액	11283
다뤄	11284
지대	11285
산맥	11286
안목	11287
연준	11288
미러	11289
꼬이	11290
경성	11291
여러모로	11292
전적	11293
##다이	11294
성화	11295
단점	11296
유원지	11297
재치	11298
걸음걸이	11299
##E	11300
##묵	11301
맞히	11302
로드	11303
움직	11304
마운드	11305
서린	11306
##장사	11307
훤	11308
산삼	11309
##넛	11310
훅	11311
필수	11312
허구	11313
양수	11314
멜로디	11315
입니다	11316
화보	11317
국적	11318
까맣	11319
코르	11320
##다오	11321
문지르	11322
공연히	11323
##스로	11324
궁중	11325
##샤	11326
금광	11327
평민	11328
학관	11329
관해서	11330
교재	11331
일사	11332
마다	11333
야망	11334
대수	11335
##략	11336
학년	11337
시커	11338
##뱀	11339
골라서	11340
개장	11341
배급	11342
엔	11343
알츠하이머	11344
##외과	11345
밝혀야	11346
견인차	11347
할리	11348
##교육	11349
증명서	11350
재발	11351
긴박	11352
딸린	11353
##지마	11354
밀려나	11355
기막힌	11356
잼	11357
##우스	11358
닳	11359
연습생	11360
모여들	11361
따스	11362
꿋꿋	11363
리코	11364
##유리	11365
송출	11366
교묘	11367
유효	11368
나온다는	11369
학습	11370
레드	11371
정박	11372
이겨낼	11373
##가락	11374
##찌감치	11375
먹구름	11376
음악가	11377
발명	11378
몰아치	11379
사본	11380
##헌	11381
##러스	11382
영국인	11383
안건	11384
선한	11385
영화제	11386
녹여	11387
수확	11388
임용	11389
경상도	11390
연어	11391
범퍼	11392
지도자	11393
제임스	11394
호실	11395
슬럼프	11396
약재	11397
리포터	11398
##엉	11399
누웠	11400
##탠	11401
부호	11402
##포트	11403
발끝	11404
나쁠	11405
아연	11406
안위	11407
폐위	11408
조별	11409
시발	11410
여비	11411
##톨	11412
지휘관	11413
진하	11414
그을	11415
어지간	11416
GP	11417
도마뱀	11418
유배	11419
유포	11420
피해야	11421
결성	11422
세워야	11423
고용주	11424
동반	11425
전면	11426
빠져들	11427
미라	11428
##펠	11429
자산	11430
정통	11431
오렌지	11432
부드러운	11433
정해져	11434
##렐	11435
패드	11436
족장	11437
완주	11438
##즉	11439
자이언	11440
대리점	11441
>	11442
천지	11443
수차례	11444
관리사	11445
##냇	11446
회색	11447
c	11448
공황	11449
경지	11450
비닐하우스	11451
효도	11452
현행	11453
세정	11454
끓어	11455
관료	11456
똘똘	11457
봅	11458
##퀸	11459
야영	11460
궐	11461
##고기	11462
상쾌	11463
형성	11464
##택시	11465
용어	11466
벼슬	11467
##우리	11468
소인	11469
가벼워	11470
공로	11471
자재	11472
연대	11473
임종	11474
잔금	11475
엇갈린	11476
길러	11477
쿠데타	11478
킨	11479
개편	11480
도로변	11481
아편	11482
기마	11483
건장	11484
칸막이	11485
에워싸	11486
112	11487
크림	11488
한정	11489
##웁	11490
##위대	11491
##랖	11492
루시	11493
얼핏	11494
리퍼	11495
사관	11496
언뜻	11497
단합	11498
마리아	11499
이한	11500
떨어뜨렸	11501
##방아	11502
일거리	11503
밀려오	11504
처신	11505
##피스	11506
찾아뵙	11507
##생긴	11508
정책	11509
입주	11510
부화	11511
정예	11512
질환	11513
뚜렷	11514
몰아넣	11515
야구단	11516
받아들였	11517
##규모	11518
보컬	11519
텔레	11520
꼭꼭	11521
보존	11522
귀띔	11523
공허	11524
선동	11525
은행장	11526
맞붙	11527
##됨	11528
병들	11529
붕	11530
다운로드	11531
반점	11532
##현실	11533
들썩	11534
농약	11535
예외	11536
광선	11537
올가	11538
##릇	11539
포획	11540
단련	11541
##휘	11542
출퇴근	11543
초안	11544
연하	11545
갯벌	11546
호호	11547
##꿈치	11548
도핑	11549
하야	11550
떠도	11551
선우	11552
픽업	11553
현황	11554
민족	11555
사상	11556
각국	11557
자서전	11558
고조	11559
여행지	11560
도축	11561
묶음	11562
원조	11563
##아아	11564
각기	11565
복역	11566
놔야	11567
산만	11568
종로	11569
갖은	11570
뽑히	11571
각료	11572
선제	11573
확성기	11574
보너스	11575
##궈	11576
띤	11577
공장장	11578
역관	11579
겉모습	11580
똑	11581
그까	11582
동급	11583
이란	11584
금연	11585
무혐	11586
거역	11587
갈매기	11588
가늠	11589
프레임	11590
펼쳐져	11591
충실	11592
칼럼	11593
인사말	11594
된장	11595
##겊	11596
고약	11597
굶주	11598
국무	11599
여겨	11600
연발	11601
중화	11602
99	11603
대주	11604
##냔	11605
못한다면	11606
##탱	11607
기이	11608
병조	11609
혼혈	11610
쯧	11611
하키	11612
영호	11613
사이버	11614
바란	11615
딸아이	11616
활기	11617
겨드	11618
백발	11619
임기	11620
급박	11621
축구장	11622
항공사	11623
풍요	11624
##더기	11625
중상	11626
68	11627
채무자	11628
제과	11629
뮤	11630
싸여	11631
시연	11632
엑소	11633
던질	11634
유성	11635
##구조	11636
드나들	11637
##스케	11638
##국수	11639
빨갛	11640
##모자	11641
지름길	11642
쇼크	11643
##꼿	11644
뻣뻣	11645
걸어야	11646
내신	11647
매서운	11648
##거렸	11649
빠듯	11650
그루	11651
남북	11652
낙엽	11653
호모	11654
춘천	11655
인성	11656
펼쳐지	11657
재가	11658
모터	11659
준결승	11660
허용	11661
거론	11662
토벌	11663
재건축	11664
다릅니다	11665
왕족	11666
꼿	11667
시구	11668
##갤	11669
돼지고기	11670
잡초	11671
태극기	11672
치이	11673
들였	11674
튤	11675
강릉	11676
언행	11677
경쟁사	11678
구구	11679
화랑	11680
신당	11681
십자	11682
행보	11683
무성	11684
농도	11685
부시	11686
휩싸	11687
제작사	11688
조여	11689
출항	11690
감회	11691
방파	11692
##하마	11693
##주부	11694
중식	11695
아우성	11696
정각	11697
경리	11698
다는	11699
듭니다	11700
짬뽕	11701
거사	11702
삥	11703
기어이	11704
커리어	11705
##잣	11706
거치	11707
황실	11708
충전기	11709
푸짐	11710
오일	11711
미망	11712
웨이트	11713
균열	11714
순대	11715
##화기	11716
사도	11717
야만	11718
##쯧	11719
성매매	11720
철근	11721
지탱	11722
병풍	11723
타국	11724
누비	11725
승산	11726
추출	11727
민박	11728
결단	11729
진이	11730
말단	11731
한국어	11732
##린다는	11733
##터리	11734
김대	11735
올려서	11736
경전	11737
##포로	11738
허브	11739
여의도	11740
모을	11741
청각	11742
잉	11743
감출	11744
입문	11745
워크	11746
통나무	11747
이대	11748
친목	11749
<	11750
폭언	11751
도살	11752
캘	11753
안중	11754
##보냈	11755
소모	11756
살아날	11757
강인	11758
서양	11759
벽지	11760
선인	11761
타일	11762
잘라서	11763
빵빵	11764
표면	11765
소망	11766
집행유예	11767
천연	11768
장어	11769
잔고	11770
작물	11771
흐리	11772
##나갔	11773
수수	11774
##양이	11775
##클리	11776
성숙	11777
오바	11778
청진	11779
계산서	11780
낙타	11781
돌파	11782
잉크	11783
명세	11784
전망대	11785
고는	11786
강령	11787
##레스	11788
암컷	11789
증권	11790
채워져	11791
지자	11792
us	11793
참새	11794
엘리	11795
신데	11796
부끄러움	11797
오로라	11798
일거	11799
앞세워	11800
입주민	11801
##금고	11802
양도	11803
##뛰	11804
본관	11805
욕구	11806
열악	11807
적기	11808
현미경	11809
스펙	11810
##시즘	11811
알려져	11812
진전	11813
테마파크	11814
##럴	11815
까다로운	11816
킹	11817
일터	11818
행차	11819
계엄	11820
의존	11821
##퀴	11822
##쁘	11823
손해배상	11824
체벌	11825
##킵	11826
고압	11827
##B	11828
전후	11829
손실	11830
##짠	11831
클라	11832
극진	11833
불경	11834
줄곧	11835
뒷부분	11836
##진진	11837
다량	11838
우측	11839
개념	11840
조선소	11841
130	11842
사과문	11843
추행	11844
과실	11845
할리우드	11846
재조	11847
페	11848
고유	11849
##지르	11850
까치	11851
출연료	11852
원상	11853
다지	11854
뀌	11855
아인	11856
청계천	11857
라운지	11858
허위	11859
수당	11860
즐길	11861
대리인	11862
##백산	11863
날카	11864
용도	11865
뭉클	11866
##뛴	11867
하루빨리	11868
##횡	11869
배상	11870
옴	11871
##챌	11872
전인	11873
체류	11874
빗발	11875
삼켜	11876
##데이트	11877
대나무	11878
길목	11879
나올지	11880
##러기	11881
넘쳐	11882
장단	11883
흡연	11884
즈음	11885
맹렬	11886
한기	11887
본성	11888
자진	11889
줌	11890
옹	11891
내딛	11892
오타	11893
출연자	11894
헌신	11895
띈다	11896
짐짓	11897
선도	11898
기획사	11899
겹치	11900
기미	11901
근본	11902
모색	11903
벌판	11904
##나마	11905
수령	11906
관광지	11907
마흔	11908
개천	11909
꼬박꼬박	11910
시급	11911
독설	11912
골수	11913
기약	11914
발기	11915
##득이	11916
끊이	11917
스와	11918
단행본	11919
수출	11920
계모	11921
셰	11922
##워드	11923
부조	11924
구단	11925
소용돌이	11926
외딴	11927
##s	11928
45	11929
탄약	11930
민병	11931
정력	11932
영화배우	11933
보인다는	11934
이면	11935
기숙	11936
바이킹	11937
위주	11938
백마	11939
외쳐	11940
31	11941
구조물	11942
##펴	11943
느린	11944
금치	11945
##일기	11946
준비물	11947
서툰	11948
초고층	11949
유형	11950
붙일	11951
날아갔	11952
서클	11953
뿌렸	11954
상류층	11955
##55	11956
타협	11957
##초리	11958
생계	11959
깊숙	11960
포구	11961
해부	11962
##부지	11963
시퍼	11964
협의	11965
드려요	11966
고사	11967
그죠	11968
낭패	11969
전입	11970
틈틈이	11971
콩나물	11972
맞춤	11973
##마디	11974
묘사	11975
운운	11976
무용수	11977
상담소	11978
출격	11979
무너뜨리	11980
향상	11981
재무	11982
넝	11983
항체	11984
빔	11985
너무너무	11986
소득	11987
축구팀	11988
영리	11989
농작물	11990
일관	11991
오물	11992
딛	11993
전시장	11994
레즈	11995
빌어먹	11996
따끔	11997
꿈꾼	11998
##뷔	11999
종사	12000
권태	12001
파라다이스	12002
곤혹	12003
자처	12004
##우치	12005
무려	12006
테이	12007
엔터	12008
밸	12009
중사	12010
비키니	12011
토지	12012
트림	12013
답안	12014
자비	12015
사생	12016
백혈병	12017
취임	12018
123	12019
육군	12020
승승장구	12021
원금	12022
엄격	12023
다룬다	12024
##신문	12025
퍼부	12026
그래프	12027
용접	12028
유튜브	12029
물놀이	12030
보좌	12031
대대로	12032
꽃밭	12033
자연스레	12034
휘감	12035
시드니	12036
장르	12037
산책로	12038
하청	12039
사립	12040
악한	12041
들썩이	12042
하차	12043
모방	12044
벼	12045
누락	12046
지닌	12047
핸드	12048
공적	12049
박은	12050
도도	12051
문란	12052
실현	12053
##으므로	12054
시간표	12055
미미	12056
결과물	12057
해온	12058
페스티벌	12059
감독관	12060
통한다	12061
경계심	12062
파르	12063
사회주의	12064
라멘	12065
아름다	12066
소나무	12067
진군	12068
조원	12069
희곡	12070
전했	12071
개별	12072
머지않	12073
탄탄	12074
서프	12075
꼭지	12076
##p	12077
우상	12078
대합실	12079
##라이즈	12080
감행	12081
서원	12082
온화	12083
히히	12084
녹이	12085
##팠	12086
셀카	12087
제트	12088
아이슬란드	12089
묵묵	12090
밤낮	12091
거르	12092
아찔	12093
어학	12094
원정대	12095
수진	12096
가로수	12097
일생	12098
출금	12099
든다는	12100
하오	12101
북극	12102
너그	12103
냥	12104
영사관	12105
실무	12106
다녀갔	12107
더위	12108
사업장	12109
##이즈	12110
감청	12111
풋	12112
v	12113
##전자	12114
식단	12115
##큰	12116
자명	12117
비트	12118
진위	12119
물줄기	12120
실명	12121
둥지	12122
묵직	12123
반년	12124
살펴봤	12125
회의록	12126
##푸	12127
##스틱	12128
##괘	12129
낭송	12130
위인	12131
##먼지	12132
휘말리	12133
깃든	12134
프로야구	12135
내려진	12136
퇴출	12137
커진	12138
왕좌	12139
현우	12140
파스타	12141
브라	12142
치웠	12143
지능	12144
전라도	12145
평가전	12146
잠자코	12147
뒷바라지	12148
애썼	12149
절절	12150
족발	12151
간파	12152
음란	12153
개설	12154
과속	12155
실세	12156
기금	12157
스톤	12158
취해야	12159
감명	12160
한테	12161
착수	12162
비타민	12163
사뭇	12164
이방인	12165
방문자	12166
양자	12167
발광	12168
맵	12169
##사업	12170
창작	12171
워커	12172
깽	12173
명목	12174
치수	12175
달릴	12176
채굴	12177
발부	12178
MC	12179
센스	12180
만회	12181
예사	12182
약자	12183
수포	12184
능선	12185
보라색	12186
까다롭	12187
애국가	12188
스크	12189
CF	12190
내세	12191
크로	12192
##캡	12193
횟수	12194
생리대	12195
밝혀져	12196
메가	12197
화폐	12198
신탁	12199
간통	12200
오월	12201
##녕	12202
별도	12203
종말	12204
##턱	12205
엊그제	12206
위함	12207
탕수육	12208
우발	12209
샷	12210
남북한	12211
눈높이	12212
##스테이	12213
은메달	12214
청탁	12215
공약	12216
두개골	12217
무림	12218
증가	12219
분과	12220
채무	12221
가전제품	12222
관측	12223
업적	12224
굴욕	12225
강원도	12226
투쟁	12227
본질	12228
시애틀	12229
질서	12230
연맹	12231
풀어놓	12232
##실험	12233
반군	12234
직속	12235
성명	12236
##깄	12237
일화	12238
상환	12239
핑크	12240
탐욕	12241
나부	12242
지형	12243
오크	12244
도깨비	12245
TF	12246
##게이트	12247
폭설	12248
변수	12249
링크	12250
쌓이	12251
##빅	12252
이룬다	12253
##축구	12254
등불	12255
서열	12256
콧물	12257
##쳐야	12258
매니지먼트	12259
광역	12260
이소	12261
날씬	12262
톰	12263
졸음	12264
구장	12265
사정관	12266
씁	12267
강단	12268
소작	12269
인민	12270
청취	12271
진화	12272
즉흥	12273
치욕	12274
##저래	12275
본청	12276
속수무책	12277
김기	12278
##84	12279
부지런히	12280
가오	12281
고운	12282
스윙	12283
질병	12284
타로	12285
경품	12286
##나절	12287
꼭두	12288
삭감	12289
새기	12290
상반	12291
학문	12292
낙인	12293
##구장	12294
윌리엄	12295
블록	12296
외가	12297
지출	12298
백조	12299
나직	12300
보청기	12301
##두리	12302
편입	12303
매체	12304
텐	12305
난자	12306
호평	12307
##미디어	12308
등본	12309
금화	12310
##엎	12311
콘솔	12312
슈	12313
야전	12314
##앞	12315
호전	12316
드나드	12317
태평	12318
성호	12319
자궁	12320
AI	12321
함대	12322
동그	12323
짰	12324
튈	12325
올드	12326
150	12327
갈증	12328
검사장	12329
##공개	12330
몰락	12331
차츰	12332
개운	12333
##갠	12334
전액	12335
줄거리	12336
누설	12337
한산	12338
유머	12339
바라본	12340
멕	12341
방관	12342
젖소	12343
전념	12344
파일럿	12345
바바	12346
##뉴	12347
성전	12348
##로움	12349
SN	12350
칭호	12351
베스트	12352
피지	12353
군기	12354
알려졌	12355
별개	12356
각별	12357
빼앗겼	12358
숙부	12359
##부분	12360
머물렀	12361
스터디	12362
박제	12363
수중	12364
넉	12365
겸손	12366
둬야	12367
도통	12368
포항	12369
##킁	12370
탱고	12371
국립	12372
각인	12373
퍼팅	12374
킁	12375
##모로	12376
이공	12377
물티슈	12378
석연	12379
편의	12380
여파	12381
히스테	12382
가파른	12383
타석	12384
사와	12385
보리	12386
김종	12387
블랙홀	12388
그랜저	12389
도미	12390
수세	12391
괴상	12392
더불	12393
두뇌	12394
삽화	12395
독주	12396
유아	12397
로그인	12398
치료사	12399
관람객	12400
늦춰	12401
##웨이	12402
##간다는	12403
대할	12404
파인애플	12405
고를	12406
토론회	12407
강철	12408
학급	12409
움직여야	12410
워싱턴	12411
##뗀	12412
##퓨	12413
즐거움	12414
그토록	12415
연호	12416
월드	12417
속한	12418
붙여진	12419
함선	12420
불신	12421
##하하	12422
배부르	12423
레터	12424
폴란드	12425
들여놓	12426
도리어	12427
바쳤	12428
소라	12429
붙여서	12430
라스베이거스	12431
인장	12432
##눌	12433
통닭	12434
무어	12435
##성대	12436
스폰서	12437
배척	12438
친형	12439
립	12440
불참	12441
인솔	12442
지원서	12443
##코드	12444
어렴풋이	12445
꺾이	12446
안내판	12447
바이어	12448
치약	12449
단가	12450
##기업	12451
정석	12452
##크로	12453
시라	12454
세포	12455
안장	12456
암기	12457
코리아	12458
헌혈	12459
불화	12460
성욕	12461
전문의	12462
분량	12463
자갈	12464
눌렀	12465
자영	12466
구리	12467
전동	12468
저질	12469
세대	12470
작자	12471
고졸	12472
감성	12473
반짝반짝	12474
평등	12475
한정판	12476
해운대	12477
자발	12478
p	12479
낙찰	12480
가정폭력	12481
도모	12482
벼르	12483
나뭇	12484
하모니	12485
성대	12486
업주	12487
내장	12488
##맸	12489
중앙선	12490
선불	12491
##소설	12492
서려	12493
고액	12494
##뿌	12495
그럴듯	12496
바자	12497
##풋	12498
희열	12499
에드	12500
##썼	12501
서가	12502
선곡	12503
자포	12504
##앴	12505
되돌리	12506
겨를	12507
배꼽	12508
##펐	12509
대세	12510
부러움	12511
로션	12512
국기	12513
섣불리	12514
베트	12515
합격자	12516
카톡	12517
##L	12518
중국어	12519
남작	12520
홀리	12521
법무법인	12522
납부	12523
반감	12524
원로	12525
심취	12526
독차지	12527
아바	12528
경의	12529
훌	12530
추기경	12531
흥겨운	12532
##워프	12533
비행장	12534
##꿨	12535
제시카	12536
스테이지	12537
벅찬	12538
혹독	12539
뚫려	12540
송년	12541
지수	12542
양성	12543
비상사태	12544
간염	12545
비문	12546
귀금속	12547
일자	12548
해프닝	12549
도화	12550
어마	12551
효력	12552
신작	12553
##퉜	12554
##날리	12555
##췄	12556
외관	12557
썬	12558
##펀	12559
되살아	12560
불면	12561
산골	12562
요령	12563
압구정	12564
인내심	12565
##렷	12566
덮개	12567
##66	12568
메우	12569
다림	12570
튀김	12571
반도	12572
신고자	12573
##슐	12574
얽혀	12575
배고픔	12576
제주	12577
총통	12578
시티	12579
정략	12580
애로	12581
등기	12582
##나갈	12583
*	12584
낙하	12585
늘어난	12586
##티브	12587
##야마	12588
##무니	12589
미나	12590
삿	12591
아득	12592
썸	12593
지침	12594
널리	12595
쓰였	12596
박찬	12597
내각	12598
대략	12599
노랑	12600
야수	12601
선량	12602
배반	12603
차용	12604
셔	12605
동양인	12606
조지	12607
##엘	12608
승려	12609
##느리	12610
정보국	12611
거주	12612
완벽히	12613
의중	12614
제니	12615
날치기	12616
삼진	12617
충실하	12618
요기	12619
##낙	12620
카니발	12621
메리	12622
임박	12623
국왕	12624
중원	12625
양산	12626
자부심	12627
이단	12628
성립	12629
##김치	12630
잔액	12631
비스듬히	12632
은하	12633
뷰	12634
자택	12635
채울	12636
##계약	12637
스트라이크	12638
소련	12639
망각	12640
연금	12641
구직자	12642
##눠	12643
에피소드	12644
무위	12645
상습	12646
트윈	12647
매사	12648
##낚	12649
성범죄	12650
리뉴	12651
자아	12652
수아	12653
##깡	12654
공표	12655
게시물	12656
선보	12657
부회장	12658
리뷰	12659
##겅	12660
동이	12661
방사능	12662
SUV	12663
숫	12664
이현	12665
기묘	12666
클래스	12667
조그	12668
성품	12669
##가슴	12670
나루	12671
쉿	12672
연약	12673
독서실	12674
##동자	12675
선수촌	12676
좌측	12677
신전	12678
설명서	12679
근원	12680
포섭	12681
아름다웠	12682
배불	12683
이어주	12684
1000	12685
늘어난다	12686
정수기	12687
단식	12688
해선	12689
출제	12690
줄리	12691
창간	12692
원형	12693
돌풍	12694
연예	12695
구실	12696
##괭	12697
조력	12698
둥둥	12699
##98	12700
분사	12701
메아리	12702
소프트	12703
나타	12704
진척	12705
안전장치	12706
소위	12707
듀엣	12708
엘리트	12709
원료	12710
툇	12711
협찬	12712
법칙	12713
나간다는	12714
후후	12715
중국인	12716
##구리	12717
##리시	12718
김양	12719
과수원	12720
추첨	12721
전문점	12722
갈색	12723
유랑	12724
단전	12725
테두리	12726
장학생	12727
농가	12728
그윽	12729
보수당	12730
지원금	12731
쉽사리	12732
위선	12733
##냉	12734
##푹	12735
독일인	12736
장도	12737
지난달	12738
위축	12739
일련	12740
##빚	12741
젤리	12742
갖가지	12743
최상급	12744
까진	12745
기부자	12746
교양	12747
건설업	12748
나옵니다	12749
##라이터	12750
활기차	12751
모니터링	12752
빨랐	12753
개찰구	12754
각본	12755
회계	12756
즐비	12757
고의로	12758
오래가	12759
이계	12760
생김새	12761
##엠	12762
기라	12763
실직	12764
##토리	12765
원격	12766
리버	12767
만기	12768
할부	12769
라이언	12770
날아갈	12771
트레이드	12772
해협	12773
성형외과	12774
조형물	12775
레일	12776
택하	12777
발바닥	12778
뒤섞	12779
하여금	12780
빙수	12781
행여	12782
##혜진	12783
사로잡혀	12784
상봉	12785
드러낸	12786
속죄	12787
부류	12788
##서기	12789
상세	12790
밸브	12791
##중간	12792
상하이	12793
의약품	12794
거북	12795
캐럴	12796
무진	12797
불임	12798
반동	12799
명소	12800
디스크	12801
낙동강	12802
유추	12803
놀라움	12804
알아차렸	12805
지렁이	12806
##마스	12807
코코	12808
##랏	12809
따질	12810
골키퍼	12811
호화	12812
성실히	12813
##촐	12814
억압	12815
유생	12816
머릿	12817
극성	12818
본의	12819
보위	12820
져서	12821
평상시	12822
북구	12823
동점	12824
컨	12825
돌이킬	12826
앞선	12827
매직	12828
건축가	12829
##수수	12830
방침	12831
애국	12832
지피	12833
문병	12834
막판	12835
힘써	12836
##곰	12837
어쨌거나	12838
주니어	12839
딜러	12840
흔히	12841
공업	12842
넘친다	12843
도마	12844
##뿌리	12845
##못해	12846
체구	12847
울렸	12848
모양새	12849
거주지	12850
##세라	12851
입회	12852
맘껏	12853
##갈이	12854
되풀이	12855
에이전트	12856
노역	12857
##흘	12858
명백	12859
증강	12860
접전	12861
연수원	12862
YMCA	12863
대단히	12864
학력	12865
차차	12866
아악	12867
추돌	12868
이명	12869
평일	12870
동강	12871
빽빽	12872
외교	12873
야자	12874
타도	12875
협정	12876
##프레	12877
운송	12878
항소심	12879
유용	12880
권고	12881
스프	12882
##라미	12883
m	12884
32	12885
시찰	12886
걸어왔	12887
수상자	12888
다큐	12889
청사	12890
##소송	12891
저울	12892
보온	12893
신빙	12894
래	12895
토성	12896
펑	12897
##맘	12898
분유	12899
캔디	12900
뼛	12901
받침	12902
최우선	12903
##벤	12904
종점	12905
당첨자	12906
고주	12907
후속	12908
패키지	12909
파전	12910
2000	12911
인용	12912
성심	12913
##학자	12914
창조	12915
바스	12916
압수수색	12917
곯	12918
방수	12919
펜스	12920
해서라도	12921
루트	12922
제리	12923
내세우	12924
쇠약	12925
직시	12926
장대	12927
시카고	12928
마이애미	12929
소유자	12930
성난	12931
반영	12932
분통	12933
독백	12934
물자	12935
부터	12936
부담감	12937
공익	12938
동력	12939
오븐	12940
##지부	12941
부총	12942
홍대	12943
식용	12944
페이퍼	12945
쇳	12946
뗄	12947
떠맡	12948
격한	12949
##펄	12950
아시안	12951
##껑	12952
##튬	12953
델	12954
선보이	12955
거스르	12956
##뤄	12957
해경	12958
중령	12959
카이	12960
파출	12961
직진	12962
치료법	12963
장본인	12964
자성	12965
드라이버	12966
송구	12967
1999	12968
원할	12969
##셉	12970
탈세	12971
달아났	12972
유영	12973
척척	12974
건수	12975
트랜스	12976
미끄럼	12977
##겄	12978
톨	12979
윗사람	12980
##미리	12981
수시로	12982
되살	12983
전해진다	12984
만주	12985
직면	12986
네온	12987
##렵	12988
소문난	12989
##짤	12990
문하	12991
아폴로	12992
불능	12993
문명	12994
육신	12995
##쌍	12996
김정	12997
내공	12998
왜곡	12999
불복	13000
수액	13001
95	13002
사무국	13003
##옇	13004
수원	13005
녹차	13006
수두	13007
물량	13008
부동	13009
##벤트	13010
계승	13011
기반	13012
해설	13013
멸치	13014
파랑	13015
후원자	13016
유발	13017
##만두	13018
수놓	13019
숙지	13020
수량	13021
통했	13022
심야	13023
스피드	13024
수연	13025
SS	13026
##인물	13027
패밀리	13028
세제	13029
엄숙	13030
까지	13031
융통	13032
여고	13033
노릴	13034
상세히	13035
정형	13036
물결	13037
##컨	13038
강대국	13039
##장어	13040
혼돈	13041
슈퍼스타	13042
온수	13043
파장	13044
##폼	13045
알파벳	13046
옷감	13047
채웠	13048
입건	13049
##미스	13050
28	13051
보금자리	13052
다가왔	13053
장내	13054
취할	13055
목재	13056
흔들림	13057
##큭	13058
만도	13059
편성	13060
짜릿	13061
간다면	13062
분할	13063
법당	13064
##닦	13065
소극	13066
##V	13067
배드민턴	13068
수수료	13069
공세	13070
무더기	13071
##옹	13072
쩍	13073
##두부	13074
열세	13075
신규	13076
문전	13077
과오	13078
단언	13079
##72	13080
청해	13081
##다나	13082
베스트셀러	13083
##그릇	13084
모로	13085
은지	13086
강습	13087
네네	13088
부드러워	13089
끈적	13090
정할	13091
미자	13092
벌여	13093
##타인	13094
개혁	13095
##파이어	13096
아티스트	13097
파헤	13098
##여름	13099
여중	13100
무늬	13101
상추	13102
촛	13103
이태원	13104
조리법	13105
소소	13106
베테랑	13107
방문객	13108
기록부	13109
추문	13110
뵌	13111
부침	13112
신속히	13113
면사	13114
커브	13115
양식	13116
캡틴	13117
먹을거리	13118
존재감	13119
본국	13120
여종	13121
역대	13122
체계	13123
MT	13124
안구	13125
교란	13126
김치찌개	13127
삐걱	13128
원나라	13129
징조	13130
여의치	13131
후지	13132
행하	13133
톡	13134
점잖	13135
평균	13136
##짚	13137
단념	13138
사각	13139
넘쳐나	13140
##메이	13141
모피	13142
##방식	13143
택했	13144
여느	13145
꽃가루	13146
비율	13147
캐롤	13148
마츠	13149
됐었	13150
난생	13151
발화	13152
평정	13153
날렵	13154
둑	13155
38	13156
##공항	13157
등장인물	13158
뒤엎	13159
혼신	13160
요소	13161
최영	13162
유명세	13163
위령	13164
야심	13165
관심사	13166
전술	13167
국방	13168
글쓰기	13169
오락가락	13170
용수	13171
무승부	13172
솥	13173
노렸	13174
따랐	13175
버려서	13176
후작	13177
장병	13178
강구	13179
스릴	13180
수평	13181
포상	13182
티비	13183
낮춘	13184
##g	13185
나뉘	13186
넙	13187
##얘	13188
탁월	13189
##바지	13190
청약	13191
아스	13192
까다	13193
회비	13194
독해	13195
품질	13196
끌어올려	13197
##쩝	13198
받아들여야	13199
비유	13200
득점	13201
혹평	13202
트로트	13203
텀	13204
금수	13205
직급	13206
구운	13207
##튀김	13208
91	13209
예비군	13210
깃	13211
세간	13212
데요	13213
느릿	13214
##로니	13215
##꿎	13216
푯	13217
따내	13218
서부	13219
저질러	13220
##빗	13221
솔라	13222
헤이	13223
꽃게	13224
끈질긴	13225
차이점	13226
앞머리	13227
코인	13228
드물	13229
##푸르	13230
병장	13231
오프	13232
리얼	13233
##맹	13234
민가	13235
##눗	13236
쿠	13237
##포스	13238
노상	13239
차이나	13240
알렉산더	13241
수돗물	13242
도매	13243
##폴	13244
테마	13245
전대	13246
##60	13247
일탈	13248
떨치	13249
벌일	13250
손아귀	13251
##퍽	13252
이어받	13253
짝퉁	13254
분쇄	13255
금주	13256
하원	13257
1997	13258
선택지	13259
안타	13260
구직	13261
러	13262
복안	13263
파파	13264
전제	13265
스키장	13266
저물	13267
시세	13268
극심	13269
다인	13270
속초	13271
시리즈	13272
묻혔	13273
게장	13274
어드	13275
원정	13276
톤	13277
유연	13278
전류	13279
##충제	13280
잔혹	13281
되짚	13282
방석	13283
ATM	13284
##튀	13285
불가피	13286
통한	13287
모노	13288
민심	13289
지극히	13290
금기	13291
나날	13292
릴	13293
홍보물	13294
기리	13295
스모	13296
속속	13297
체격	13298
이루어질	13299
판결문	13300
등판	13301
힘쓰	13302
##숭아	13303
##리아	13304
##우드	13305
목표물	13306
소자	13307
브라질	13308
일리	13309
가릴	13310
수학자	13311
달라진다	13312
라벨	13313
전개	13314
##누르	13315
슬라이	13316
권력자	13317
익힌	13318
되살리	13319
문어	13320
부속	13321
폭소	13322
하체	13323
사그라	13324
쌓였	13325
여겼	13326
만인	13327
용암	13328
파병	13329
불명	13330
정서	13331
석탄	13332
33	13333
이어져	13334
솟	13335
사상자	13336
전조	13337
##나도	13338
경기도	13339
문과	13340
멘토	13341
##뚜기	13342
불우	13343
##닭	13344
위문	13345
역사가	13346
끼칠	13347
아름	13348
아꼈	13349
경무	13350
착취	13351
익혀	13352
귓가	13353
한데요	13354
지주	13355
임대료	13356
닷새	13357
끌어올리	13358
평택	13359
29	13360
##수도	13361
나침반	13362
원주	13363
경합	13364
하산	13365
허니	13366
자립	13367
도인	13368
로즈	13369
기다림	13370
##밴드	13371
짤	13372
리프트	13373
단일팀	13374
흥미진진	13375
머니	13376
후방	13377
파수	13378
T	13379
대입	13380
골고루	13381
클라이언트	13382
산호	13383
기재	13384
가르친	13385
카사	13386
투약	13387
##깁	13388
휘날리	13389
싫증	13390
시럽	13391
아담	13392
기호	13393
먹거리	13394
체결	13395
그레이	13396
보내왔	13397
큽니다	13398
큼	13399
단아	13400
안산	13401
아늑	13402
빠져나갔	13403
주행	13404
매혹	13405
요강	13406
마이크로	13407
어라	13408
마땅히	13409
플	13410
국문	13411
나아갈	13412
레인	13413
의사소통	13414
공학	13415
지령	13416
백일	13417
##리니	13418
브라더스	13419
동향	13420
선화	13421
깨뜨리	13422
필로	13423
이을	13424
##롯	13425
끼여	13426
제작비	13427
##냅니다	13428
##이상	13429
쏠려	13430
접한다	13431
할수록	13432
음악회	13433
적자	13434
냉면	13435
김상	13436
잠재	13437
시아버지	13438
로그	13439
무한	13440
이방	13441
발산	13442
쏠리	13443
##깬	13444
다가올	13445
##기획	13446
개통	13447
전염	13448
수치심	13449
환갑	13450
광고주	13451
프로모	13452
정렬	13453
반신	13454
사실상	13455
판타지	13456
이루어진	13457
정신력	13458
밑바닥	13459
고단	13460
태극	13461
오솔길	13462
63	13463
결합	13464
s	13465
공천	13466
합쳐서	13467
일회용	13468
##랠	13469
##수단	13470
그럴수록	13471
열심	13472
별관	13473
회차	13474
느껴질	13475
재배	13476
응수	13477
##쿼	13478
뷔페	13479
진공	13480
나팔	13481
받들	13482
끈끈	13483
당원	13484
항목	13485
삭발	13486
특성	13487
연승	13488
신중히	13489
보듬	13490
행주	13491
라마	13492
나타내	13493
편안히	13494
인사동	13495
자가용	13496
목포	13497
유창	13498
위기감	13499
포켓	13500
슬라이드	13501
부적절	13502
당도	13503
장화	13504
조화	13505
식전	13506
이도	13507
잡아내	13508
찬스	13509
무수히	13510
##샘	13511
땅값	13512
줄인다	13513
회개	13514
000	13515
맛집	13516
품목	13517
샅	13518
부질	13519
아일랜드	13520
서슴	13521
이이	13522
고택	13523
모순	13524
떠넘기	13525
전도	13526
탱	13527
##수염	13528
멜론	13529
길들이	13530
파멸	13531
PO	13532
앞선다	13533
육성	13534
인하	13535
수요일	13536
멸	13537
토미	13538
폐광	13539
참석자	13540
만능	13541
광활	13542
주재	13543
낙천	13544
##헬	13545
##갱	13546
##딥	13547
게으	13548
##회관	13549
오색	13550
신기록	13551
자존	13552
실렸	13553
판독	13554
치른	13555
약탈	13556
후사	13557
빡	13558
인멸	13559
부흥	13560
줄어드	13561
요동치	13562
설상가상	13563
모종	13564
국정	13565
아하	13566
죄의식	13567
레이더	13568
분당	13569
몸뚱이	13570
태양계	13571
##연수	13572
사용자	13573
배부	13574
리모	13575
하락	13576
##테이션	13577
쉼터	13578
개학	13579
자화상	13580
간질	13581
변이	13582
후견	13583
자구	13584
일체	13585
더한	13586
분쟁	13587
뛰어드	13588
부기	13589
조달	13590
살펴볼	13591
앨	13592
월터	13593
발행	13594
아야	13595
트리오	13596
우먼	13597
사절단	13598
##뛰기	13599
간략	13600
이동식	13601
판자	13602
발송	13603
수컷	13604
영업시간	13605
비서관	13606
해답	13607
투표율	13608
의복	13609
불어오	13610
예선전	13611
자칫	13612
김일성	13613
모아야	13614
동아	13615
객관적으로	13616
##숨	13617
집값	13618
미식	13619
전남	13620
매료	13621
피난처	13622
워터	13623
속박	13624
매스	13625
탄산	13626
베타	13627
가엾	13628
잿	13629
췄	13630
한단다	13631
은닉	13632
상륙	13633
가물	13634
타락	13635
부안	13636
응시자	13637
시뮬	13638
모모	13639
채점	13640
일부분	13641
치하	13642
굳히	13643
오성	13644
##배기	13645
까르	13646
프랜차이즈	13647
고학	13648
##앤	13649
난색	13650
고추장	13651
OB	13652
절약	13653
선조	13654
일제	13655
문인	13656
##데기	13657
진수	13658
해바라기	13659
끌어당기	13660
입상	13661
노여	13662
해진	13663
누런	13664
또는	13665
낙지	13666
개그맨	13667
영의정	13668
머슴	13669
그란	13670
명예훼손	13671
이뤘	13672
##랜드	13673
자그마	13674
투박	13675
내겐	13676
급격	13677
회계사	13678
피터	13679
눈부신	13680
간접	13681
닭고기	13682
오리엔	13683
##놉	13684
눈부시	13685
핀란드	13686
듬	13687
가업	13688
##릅니다	13689
물색	13690
페이	13691
##n	13692
준장	13693
26	13694
온전히	13695
##엉이	13696
노련	13697
송도	13698
특허	13699
꼼	13700
청자	13701
양배추	13702
한몫	13703
불멸	13704
곤두박질	13705
미스터	13706
카디	13707
성주	13708
격돌	13709
분산	13710
행복감	13711
물레	13712
경험담	13713
항생제	13714
단축	13715
명칭	13716
충원	13717
유정	13718
하얀색	13719
바이오	13720
추종	13721
##윤	13722
사나운	13723
주관	13724
##렉스	13725
텃밭	13726
내려지	13727
근무자	13728
급수	13729
된장찌개	13730
발치	13731
현판	13732
모드	13733
한도	13734
걸맞	13735
법전	13736
유체	13737
무르익	13738
야당	13739
파열	13740
올인	13741
경계선	13742
정갈	13743
중공	13744
평론가	13745
정민	13746
플라	13747
중턱	13748
입성	13749
상아	13750
##각서	13751
중장	13752
일삼	13753
미약	13754
숙식	13755
나타낸다	13756
묵인	13757
중립	13758
##저가	13759
말뚝	13760
##네이터	13761
성과급	13762
세기	13763
쪄	13764
메디	13765
한식	13766
##조건	13767
최상	13768
추론	13769
수기	13770
의류	13771
상표	13772
흥행	13773
뜻밖에	13774
줄어든다	13775
노장	13776
떠안	13777
싱싱	13778
신동	13779
마음가짐	13780
가느	13781
피드백	13782
신화	13783
강력히	13784
응원단	13785
돌아다녔	13786
음미	13787
동양	13788
기권	13789
##뜻	13790
요거	13791
점거	13792
의술	13793
가옥	13794
착실	13795
기와	13796
치안	13797
분열	13798
기만	13799
##달리	13800
오르막	13801
뗐	13802
김선	13803
사명	13804
부들	13805
##티스	13806
였	13807
분란	13808
##S	13809
절하	13810
스마트	13811
표류	13812
소다	13813
핵실험	13814
최강	13815
듬뿍	13816
소피	13817
차주	13818
파헤쳐	13819
##먼트	13820
도입	13821
진입로	13822
변두리	13823
배추	13824
콘스탄	13825
왕복	13826
##라리	13827
감도	13828
전전긍긍	13829
포토	13830
효자	13831
깝	13832
##연구소	13833
노루	13834
사마	13835
위력	13836
접어든	13837
줄일	13838
상고	13839
아쉬웠	13840
##썰	13841
리프	13842
고충	13843
공통	13844
나일	13845
##엣	13846
해녀	13847
법무부	13848
##일보	13849
요동	13850
동서	13851
도맡	13852
천주교	13853
마칠	13854
보정	13855
소비	13856
초토	13857
의용	13858
광화문	13859
흡사	13860
악취	13861
초가	13862
피폐	13863
통치	13864
혈전	13865
냉혹	13866
고속	13867
총괄	13868
찬양	13869
화물차	13870
그르	13871
세리	13872
연정	13873
양측	13874
##뻤	13875
##폐물	13876
학벌	13877
급작	13878
또렷	13879
시뮬레이션	13880
##구려	13881
##63	13882
전근	13883
이세	13884
조장	13885
베니스	13886
##제리	13887
이행	13888
원생	13889
치렀	13890
웅장	13891
석고	13892
##지사	13893
랭킹	13894
이인	13895
장마	13896
행군	13897
뛴	13898
기독교	13899
디테일	13900
##덥	13901
기여	13902
대외	13903
월드컵	13904
사범	13905
지리	13906
생성	13907
베를린	13908
경정	13909
2014	13910
대인	13911
빈혈	13912
##시마	13913
라운드	13914
뒤섞여	13915
1983	13916
아킬	13917
무의미	13918
출품	13919
인양	13920
양형	13921
##슬로	13922
스트레이트	13923
네트	13924
충성심	13925
주력	13926
##대사	13927
각별히	13928
미대	13929
짜리	13930
포지션	13931
걸세	13932
윈	13933
시내버스	13934
발현	13935
요점	13936
인슐린	13937
우월	13938
생필품	13939
나들이	13940
앞세우	13941
더군다나	13942
황급	13943
활력	13944
교훈	13945
각색	13946
98	13947
거동	13948
숯불	13949
되새기	13950
염증	13951
##투리	13952
짊	13953
거행	13954
사들이	13955
둔치	13956
수양	13957
##멜	13958
##템	13959
침해	13960
##덟	13961
##사위	13962
새하	13963
연세	13964
저널	13965
치러진	13966
망설였	13967
챘	13968
감소	13969
베푸	13970
##글라스	13971
붐비	13972
출입국	13973
##효과	13974
연차	13975
첨단	13976
##피아	13977
기형	13978
설령	13979
기린	13980
결핵	13981
##아리	13982
곰팡이	13983
##키스	13984
##내렸	13985
상회	13986
풀어내	13987
풍물	13988
쏠린다	13989
문화원	13990
##네즈	13991
호르몬	13992
과대	13993
중형	13994
##덴	13995
Y	13996
34	13997
상영관	13998
브이	13999
쾌감	14000
뽑아내	14001
성년	14002
달구	14003
중소기업	14004
지휘자	14005
순종	14006
##퉁이	14007
무라	14008
증후군	14009
헤아려	14010
변함없이	14011
아라	14012
물러날	14013
형법	14014
체제	14015
변비	14016
정년	14017
##랭이	14018
휴업	14019
예보	14020
##빡	14021
##버리지	14022
다라	14023
##꾸미	14024
건축물	14025
선주	14026
연예계	14027
로스쿨	14028
현직	14029
귀여	14030
상도	14031
발라드	14032
장학	14033
체형	14034
오너	14035
##카라	14036
한옥	14037
흔치	14038
사간	14039
못지않	14040
사탄	14041
말살	14042
송수	14043
근접	14044
식욕	14045
불러올	14046
전전	14047
동승	14048
##획	14049
위탁	14050
가닥	14051
줄어	14052
발달	14053
말끔히	14054
춘향	14055
##톤	14056
신종	14057
김현	14058
개발자	14059
드레싱	14060
스튜어트	14061
##킷	14062
난관	14063
김장	14064
견적	14065
내세워	14066
숨진	14067
신설	14068
바라볼	14069
비전	14070
마니아	14071
##망울	14072
임자	14073
파문	14074
##텅	14075
마을금고	14076
이반	14077
규율	14078
##지구	14079
잡음	14080
기념식	14081
내보냈	14082
##미사	14083
봉합	14084
소관	14085
측면	14086
입자	14087
미달	14088
거취	14089
케어	14090
무거	14091
탄압	14092
점포	14093
이정표	14094
침구	14095
소생	14096
집중력	14097
경장	14098
처할	14099
쉐	14100
그칠	14101
나락	14102
개요	14103
숨쉬	14104
만료	14105
월경	14106
숭배	14107
곤두	14108
직설	14109
화질	14110
컥	14111
상상력	14112
카라	14113
사별	14114
접하	14115
특급	14116
##들였	14117
수증기	14118
트로이	14119
연령	14120
호기	14121
헛되	14122
발렌타인	14123
패한	14124
맛나	14125
의전	14126
닥친	14127
매미	14128
##솜	14129
부추기	14130
에세이	14131
환희	14132
직무	14133
나카	14134
홍차	14135
각지	14136
반대파	14137
유격	14138
코칭	14139
산불	14140
##닿	14141
반환	14142
송아지	14143
엇갈리	14144
삼거리	14145
##믈	14146
동성	14147
감축	14148
분담	14149
관절	14150
카리스마	14151
어조	14152
헬	14153
준수	14154
영토	14155
크리	14156
조그마	14157
얼마간	14158
컬러	14159
배분	14160
UF	14161
그랜드	14162
생도	14163
논하	14164
필터	14165
가뭄	14166
미룰	14167
한상	14168
큐레이터	14169
##컬	14170
67	14171
전압	14172
천연가스	14173
헌법	14174
웅변	14175
군청	14176
골짜기	14177
동등	14178
무작위	14179
거슬러	14180
견해	14181
꼬박	14182
탬	14183
##무실	14184
장벽	14185
선발전	14186
방공	14187
미트	14188
지질	14189
##릅	14190
점유	14191
발탁	14192
##수정	14193
매달렸	14194
줄여야	14195
친지	14196
압박감	14197
섬세	14198
파우더	14199
벌어져	14200
옵	14201
아트	14202
##젭	14203
물거품	14204
신생아	14205
세균	14206
방면	14207
가중	14208
선사	14209
펌프	14210
묵살	14211
일축	14212
배기	14213
배틀	14214
##허가	14215
스포	14216
레몬	14217
고된	14218
괜	14219
##너스	14220
KG	14221
장하	14222
도성	14223
유린	14224
값비싼	14225
속해	14226
살펴본	14227
반경	14228
효모	14229
거침없	14230
드넓	14231
됨	14232
난무	14233
고등	14234
추후	14235
곽	14236
간장	14237
금감원	14238
쟁취	14239
훗날	14240
읍	14241
장막	14242
분간	14243
억제	14244
대영	14245
채집	14246
갖췄	14247
재경	14248
다룬	14249
비통	14250
항문	14251
박람회	14252
희박	14253
서대문	14254
허드	14255
칙	14256
영문학	14257
설비	14258
문책	14259
눈덩이	14260
순회	14261
조미료	14262
로브	14263
판단력	14264
복식	14265
내시경	14266
햇	14267
요번	14268
##열차	14269
은둔	14270
멸시	14271
노점	14272
가장자리	14273
티코	14274
붙잡혔	14275
이뤄진	14276
개표	14277
우표	14278
아슬	14279
위세	14280
따름	14281
##쿡	14282
해외여행	14283
##세자	14284
감사관	14285
파우	14286
##듭	14287
관습	14288
가까	14289
윤곽	14290
화이	14291
스타트	14292
내막	14293
네모	14294
눈매	14295
필드	14296
혼선	14297
아스팔트	14298
IP	14299
부쩍	14300
조짐	14301
응모	14302
각막	14303
낱낱이	14304
##마트	14305
심리학	14306
해저	14307
특파원	14308
우렁	14309
마틴	14310
아이구	14311
저버리	14312
끽	14313
꽈	14314
오인	14315
농성	14316
복무	14317
지반	14318
##바로	14319
집적	14320
핸드볼	14321
신곡	14322
서문	14323
자치	14324
대서	14325
급속도	14326
배구	14327
모닝	14328
상호	14329
급사	14330
##언스	14331
활로	14332
급급	14333
면하	14334
##나기	14335
조류	14336
잠실	14337
키워야	14338
패하	14339
벼룩	14340
더구나	14341
간사	14342
##77	14343
엄두	14344
MRI	14345
풍부	14346
내놨	14347
부릴	14348
던	14349
배설	14350
##뷰	14351
걸러	14352
막강	14353
##세기	14354
건대	14355
증축	14356
글로브	14357
변변	14358
##f	14359
코카	14360
해물	14361
유상	14362
도르	14363
아이러니	14364
원은	14365
추악	14366
변덕	14367
거리낌	14368
골드	14369
막장	14370
동해	14371
구축함	14372
남방	14373
갑작스	14374
본보기	14375
동질	14376
원도	14377
성명서	14378
탈환	14379
속하	14380
화합	14381
암초	14382
400	14383
헛된	14384
##장자	14385
청순	14386
임의	14387
비호	14388
차출	14389
되새	14390
선대	14391
항로	14392
힙합	14393
닻	14394
조소	14395
판매점	14396
##통신	14397
칼국수	14398
포근	14399
대북	14400
출렁	14401
비좁	14402
패전	14403
선양	14404
쩌	14405
수산	14406
적시	14407
##윗	14408
예금	14409
튀겨	14410
##선거	14411
딩	14412
총회	14413
원리	14414
프로모션	14415
문턱	14416
자이	14417
재일	14418
재물	14419
##꿈	14420
천억	14421
모리	14422
억양	14423
통합	14424
침팬지	14425
의해서	14426
##즙	14427
신흥	14428
발발	14429
##아트	14430
아이콘	14431
전한	14432
육수	14433
유선	14434
최고가	14435
WHO	14436
키로	14437
스팸	14438
노이	14439
평안	14440
밍	14441
뒤바	14442
숭	14443
##N	14444
균	14445
소림	14446
쳐들	14447
고참	14448
1989	14449
사천	14450
언론인	14451
큭	14452
인명	14453
희생양	14454
##IP	14455
믹	14456
수직	14457
클라이	14458
박기	14459
과민	14460
엇	14461
색다른	14462
보강	14463
기병	14464
간간이	14465
습득	14466
쫑	14467
##뎠	14468
##용차	14469
생애	14470
##녘	14471
끼쳤	14472
스페인	14473
최적	14474
필라델피아	14475
유동	14476
발등	14477
분배	14478
본다면	14479
네트워크	14480
매립지	14481
순결	14482
믹스	14483
공백	14484
흔들렸	14485
몰렸	14486
어서요	14487
취지	14488
역설	14489
그려지	14490
##얀	14491
치닫	14492
수인	14493
워크숍	14494
히틀러	14495
귀순	14496
즉각	14497
왕가	14498
염두	14499
거창	14500
사모	14501
배당	14502
쬐	14503
##김없이	14504
옵션	14505
퓨전	14506
웰	14507
내리막길	14508
심히	14509
UN	14510
투성이	14511
급성	14512
##뉴스	14513
실에	14514
연연	14515
섞이	14516
##보증	14517
유무	14518
박하	14519
뒷전	14520
반론	14521
##린내	14522
배출	14523
구만	14524
허점	14525
##보스	14526
포부	14527
버팀목	14528
##첨	14529
헬싱	14530
샜	14531
북측	14532
내몰	14533
한국군	14534
파격	14535
주어진다	14536
자율	14537
##쏘	14538
장실	14539
생겨난	14540
띵	14541
투하	14542
작아지	14543
정시	14544
고동	14545
유학생	14546
켜졌	14547
##즘	14548
##뱅	14549
심청	14550
소량	14551
악명	14552
창업	14553
만족감	14554
맞춰야	14555
아나키	14556
##드름	14557
상경	14558
##궐	14559
재판소	14560
깃들	14561
화백	14562
##극장	14563
걷잡	14564
등산객	14565
들끓	14566
안착	14567
샐	14568
쪼금	14569
프린터	14570
##상가	14571
수주	14572
발명품	14573
특검	14574
대목	14575
##협회	14576
##쌈	14577
유진	14578
가부	14579
매기	14580
꺼리	14581
##정원	14582
형벌	14583
재래	14584
비빔밥	14585
앵글	14586
추대	14587
시차	14588
신청자	14589
##박질	14590
산후	14591
무방비	14592
불응	14593
해상	14594
발판	14595
방사선	14596
알록	14597
일감	14598
아리	14599
이날	14600
전임	14601
유류	14602
단위	14603
600	14604
##회원	14605
민주당	14606
작위	14607
정수장	14608
향후	14609
스테이	14610
메탈	14611
작업자	14612
제로	14613
신형	14614
군관	14615
제사장	14616
서리	14617
천안	14618
냉기	14619
자랄	14620
정열	14621
히트	14622
직구	14623
흔하	14624
채식	14625
##총장	14626
합친	14627
차곡차곡	14628
빕	14629
모성	14630
드러날	14631
차남	14632
수잔	14633
소홀히	14634
관련자	14635
흉악	14636
우세	14637
이스트	14638
구간	14639
여주	14640
유예	14641
참배	14642
동수	14643
드림	14644
항공기	14645
폐렴	14646
고위직	14647
과소	14648
##Y	14649
생겨나	14650
처사	14651
##웃	14652
프로젝	14653
페라	14654
스페인어	14655
삼계탕	14656
밤샘	14657
징검다리	14658
태평양	14659
제왕	14660
그쳤	14661
##뽑	14662
둥글	14663
65	14664
막힐	14665
##질서	14666
한반도	14667
부지런	14668
주검	14669
동명	14670
척추	14671
선진	14672
청했	14673
아카데미	14674
독재자	14675
장지	14676
학업	14677
풍성	14678
부응	14679
##64	14680
투지	14681
템포	14682
##믹스	14683
적외선	14684
테이크	14685
업그레이드	14686
인스	14687
표명	14688
유방암	14689
태산	14690
셔틀	14691
극찬	14692
얽히	14693
북경	14694
다가갈	14695
아구	14696
크롬	14697
뽐	14698
황폐	14699
##브라	14700
악역	14701
기껏해야	14702
##마음	14703
##테리아	14704
요약	14705
혓	14706
##사리	14707
온기	14708
기로	14709
기념회	14710
아시아	14711
##버섯	14712
운항	14713
유급	14714
가속	14715
민수	14716
재연	14717
곧잘	14718
한들	14719
KO	14720
팀워크	14721
끼리	14722
영자	14723
H	14724
관점	14725
##댕	14726
패소	14727
소비자	14728
후기	14729
전반	14730
##버그	14731
관건	14732
##반도	14733
계열	14734
서킷	14735
빌리지	14736
미네르바	14737
대대장	14738
설파	14739
노화	14740
청담동	14741
원예	14742
변함	14743
풍자	14744
파고드	14745
##블러	14746
이맘때	14747
보습	14748
##볶음	14749
시킨다고	14750
비무장	14751
부여받	14752
초연	14753
구미	14754
메밀	14755
목청	14756
방호	14757
전세금	14758
수익금	14759
어음	14760
드리워	14761
알고리즘	14762
수지	14763
눈꺼풀	14764
용모	14765
파크	14766
현혹	14767
##륨	14768
모독	14769
마찬	14770
통기	14771
##사관	14772
달려갔	14773
불어넣	14774
앞당겨	14775
##좀	14776
내게는	14777
펄펄	14778
센서	14779
다구	14780
커트	14781
식수	14782
그야말로	14783
씀	14784
##쩌	14785
로사	14786
댓	14787
초월	14788
출몰	14789
셀프	14790
안과	14791
콘도	14792
폭락	14793
##85	14794
철학자	14795
날아들	14796
저수	14797
남다르	14798
야마	14799
총애	14800
창의	14801
경영진	14802
카누	14803
##환경	14804
##시스트	14805
##뵐	14806
단기	14807
안팎	14808
써니	14809
아서	14810
카우	14811
압둘	14812
지칠	14813
관내	14814
편집국장	14815
소극장	14816
훤히	14817
중문	14818
삼켰	14819
신명	14820
누릴	14821
타이거	14822
맞닿	14823
유망주	14824
전업	14825
고춧가루	14826
##바르	14827
크리스	14828
후식	14829
##벌리	14830
애칭	14831
쉼	14832
연유	14833
루소	14834
180	14835
구라	14836
집집	14837
보유	14838
연도	14839
강동	14840
##에프	14841
시진	14842
도토리	14843
노심	14844
모교	14845
인해서	14846
미나리	14847
한낱	14848
근래	14849
피트	14850
탭	14851
갈망	14852
미완성	14853
멀티	14854
캐스	14855
시경	14856
오우	14857
난항	14858
늘어날	14859
업데이트	14860
곱창	14861
정호	14862
개척	14863
개경	14864
절제	14865
천민	14866
제빵	14867
무협	14868
변조	14869
여과	14870
지훈	14871
나치	14872
뽐내	14873
헝가리	14874
조바심	14875
렌	14876
대폭	14877
미시	14878
렌트	14879
##회전	14880
교외	14881
마카오	14882
면제	14883
다져	14884
서인	14885
스파크	14886
##덧	14887
갈아타	14888
실업자	14889
대니	14890
사은품	14891
가의	14892
세부	14893
거머	14894
순리	14895
애기	14896
궁합	14897
최첨단	14898
취재원	14899
회고록	14900
천문대	14901
제명	14902
은사	14903
##쾌	14904
##론자	14905
위엄	14906
샌프란시스코	14907
해수	14908
숨통	14909
피치	14910
직계	14911
##73	14912
앙상	14913
##다랗	14914
정유	14915
바르셀로나	14916
##혹	14917
표결	14918
모차르트	14919
고귀	14920
br	14921
맷	14922
오른발	14923
해병	14924
소진	14925
거점	14926
쌍방	14927
76	14928
##이크	14929
종묘	14930
오랑캐	14931
연꽃	14932
마지	14933
내줬	14934
마닐라	14935
에디	14936
레미콘	14937
쌔	14938
##o	14939
##슬링	14940
합당	14941
탈북자	14942
지병	14943
돌담	14944
단절	14945
양가	14946
섬기	14947
스며	14948
##픽	14949
강등	14950
##픕	14951
서식지	14952
속눈썹	14953
받치	14954
61	14955
드리블	14956
##l	14957
발주	14958
실력자	14959
개명	14960
##꿔	14961
몸뚱	14962
2005	14963
법조인	14964
전례	14965
황사	14966
##학습	14967
천문	14968
##찔	14969
청동	14970
##최	14971
초심	14972
##커트	14973
레고	14974
축축	14975
##탔	14976
비쳐	14977
비평	14978
로스	14979
학회	14980
공립	14981
익살	14982
꼈	14983
유권자	14984
그지없	14985
상업	14986
지성	14987
갈라져	14988
생모	14989
##노프	14990
미디어	14991
보완	14992
파동	14993
강좌	14994
왕세자	14995
오아시스	14996
##로그	14997
분기	14998
하리	14999
예절	15000
##겸	15001
아크	15002
기질	15003
관리비	15004
피력	15005
크라이	15006
##연설	15007
근로자	15008
공산당	15009
본점	15010
##멈	15011
백설	15012
실천	15013
당국	15014
메디컬	15015
라운	15016
##권력	15017
장구	15018
재위	15019
기공	15020
군데군데	15021
수십만	15022
뜨거	15023
지나칠	15024
변제	15025
덧붙여	15026
색상	15027
경외	15028
습	15029
산발	15030
루프	15031
##겨울	15032
무르	15033
끌어들여	15034
포르	15035
앳	15036
동대문	15037
재해	15038
55	15039
##러졌	15040
안식	15041
늘어났	15042
이화	15043
나이스	15044
부국	15045
즐겼	15046
질타	15047
기뻐했	15048
금남	15049
##찐	15050
조경	15051
호미	15052
##탉	15053
어김없이	15054
공권력	15055
궤도	15056
아오	15057
포스	15058
민중	15059
그라운드	15060
비중	15061
라니	15062
마린	15063
잠재우	15064
사들인	15065
샤프	15066
##67	15067
##휴가	15068
상투	15069
승패	15070
흐흐	15071
장성	15072
민첩	15073
용사	15074
김은	15075
우위	15076
카를	15077
강산	15078
##투자	15079
마카롱	15080
단편	15081
진성	15082
다중	15083
식별	15084
생물학	15085
##니스	15086
수칙	15087
혈연	15088
판촉	15089
뿅	15090
##쿠버	15091
리사	15092
##일러	15093
파주	15094
휴무	15095
심신	15096
##멓	15097
평면	15098
후예	15099
정세	15100
극락	15101
천주	15102
남용	15103
상담원	15104
물어야	15105
역도	15106
카페인	15107
슬러	15108
볼트	15109
인다	15110
독거	15111
##맥스	15112
조제	15113
자본	15114
베스	15115
무턱대고	15116
지만	15117
팡	15118
1985	15119
절호	15120
볏	15121
덕담	15122
빅토리아	15123
베를	15124
심할	15125
청량리	15126
인공지능	15127
세세	15128
하프	15129
##마른	15130
바벨	15131
폐암	15132
##누이	15133
김영	15134
고난	15135
켈	15136
칙칙	15137
해리	15138
발간	15139
기른	15140
일광	15141
감사원	15142
달인	15143
명랑	15144
촉구	15145
예스	15146
튜닝	15147
토건	15148
플랜	15149
조현	15150
사각형	15151
은은	15152
사각지대	15153
줄리엣	15154
##갈비	15155
연극제	15156
편도	15157
렉	15158
프라하	15159
성도	15160
교육청	15161
세밀	15162
감초	15163
##기술	15164
##흑	15165
신학	15166
이진	15167
w	15168
지부장	15169
영등포	15170
스커트	15171
페트	15172
##착륙	15173
오마	15174
일명	15175
심플	15176
중퇴	15177
자락	15178
버터	15179
골칫	15180
법조	15181
##타이	15182
나이키	15183
입혔	15184
시달렸	15185
##엇	15186
##사상	15187
그제	15188
저조	15189
쓸데	15190
해수욕장	15191
초입	15192
팠	15193
진리	15194
##냄	15195
편곡	15196
심도	15197
뿜어내	15198
보전	15199
간주	15200
##탭	15201
나빠졌	15202
대다수	15203
이뤄졌	15204
##이스	15205
동남	15206
턱없이	15207
힘찬	15208
교과	15209
수백만	15210
쇼팽	15211
대군	15212
공갈	15213
##깎	15214
코코넛	15215
천문학	15216
되돌아보	15217
선수단	15218
쳇	15219
지휘봉	15220
하워드	15221
##큘	15222
어촌	15223
뱅	15224
누수	15225
101	15226
##게티	15227
양재	15228
초식	15229
수모	15230
짬	15231
리콜	15232
쪼끔	15233
강했	15234
공사비	15235
풍족	15236
혈당	15237
녘	15238
히든	15239
학위	15240
행한	15241
한라	15242
라이프	15243
##레이션	15244
선체	15245
베이커리	15246
기상청	15247
##부림	15248
화력	15249
셔틀버스	15250
무난	15251
동포	15252
노하우	15253
근거지	15254
참작	15255
##워했	15256
쏭	15257
향했	15258
플로리다	15259
인과	15260
$	15261
사고방식	15262
회로	15263
병든	15264
##61	15265
대산	15266
줄어든	15267
대등	15268
용량	15269
독립운동	15270
민지	15271
펼친	15272
스며들	15273
민주주의	15274
스테인리스	15275
전격	15276
##개미	15277
정철	15278
앙코르	15279
웜	15280
필두	15281
목구멍	15282
모자이크	15283
한스	15284
크로스	15285
비만	15286
상원	15287
게을리	15288
수업료	15289
터전	15290
주심	15291
궁정	15292
##글라	15293
람	15294
현주	15295
##선언	15296
주둔	15297
불렸	15298
호러	15299
##뺑	15300
최우수	15301
서경	15302
한류	15303
세손	15304
힝	15305
일면	15306
##H	15307
불합	15308
민정	15309
저고리	15310
삽입	15311
오오	15312
사공	15313
했으며	15314
빛내	15315
##돼지	15316
땋	15317
섀도	15318
짓눌	15319
분대	15320
소도	15321
냉철	15322
##붉	15323
알선	15324
##엿	15325
교리	15326
장차	15327
동맥	15328
세심	15329
구보	15330
올리브	15331
키즈	15332
결점	15333
지극	15334
산동	15335
돈독	15336
건만	15337
##변이	15338
충당	15339
연출자	15340
담화	15341
진부	15342
젠	15343
활성	15344
역량	15345
자손	15346
독일어	15347
애플	15348
습성	15349
800	15350
외신	15351
맸	15352
염원	15353
사단	15354
##갛	15355
##리어	15356
블루투스	15357
드라	15358
역주	15359
둔갑	15360
캔버스	15361
##쬐	15362
따낸	15363
법학	15364
어긋난	15365
일선	15366
투표소	15367
수족	15368
동인	15369
개강	15370
##폴리오	15371
브	15372
뭉친	15373
I	15374
페이스북	15375
계수	15376
험난	15377
스테	15378
등록증	15379
비선	15380
질까	15381
##워크	15382
##녹	15383
##조림	15384
끈기	15385
우레	15386
연기력	15387
궤적	15388
캐서린	15389
천체	15390
인심	15391
가가	15392
내전	15393
제각각	15394
페로	15395
선망	15396
일단락	15397
광채	15398
경향	15399
객관	15400
자메이카	15401
라오	15402
부랴부랴	15403
고달	15404
러시아어	15405
이국	15406
민속	15407
힘입	15408
꿩	15409
공여	15410
바닷	15411
여서	15412
39	15413
시름	15414
##쓰기	15415
기독교인	15416
오르내리	15417
금품	15418
소유주	15419
온건	15420
전면전	15421
난도	15422
시나	15423
##천시	15424
풍광	15425
원시	15426
감미	15427
사비	15428
맥락	15429
줄무늬	15430
자라나	15431
동진	15432
프레	15433
기강	15434
##에이	15435
내걸	15436
방한	15437
OO	15438
리필	15439
##사기	15440
강북	15441
쿠바	15442
맞설	15443
선봉	15444
당주	15445
실질	15446
긴밀	15447
쩝	15448
##삘	15449
##콤	15450
75	15451
신촌	15452
투자가	15453
모의고사	15454
승계	15455
판소리	15456
금강	15457
고국	15458
결함	15459
요람	15460
특권	15461
공존	15462
행진곡	15463
촉진	15464
블랙리스트	15465
신상품	15466
표본	15467
한답니다	15468
온종일	15469
콤플렉스	15470
발매	15471
찌꺼기	15472
이정	15473
출연진	15474
글로벌	15475
흥청	15476
빗대	15477
양양	15478
연마	15479
설전	15480
격식	15481
##테스	15482
과거사	15483
줍니다	15484
오갈	15485
외형	15486
갤	15487
스웨덴	15488
며	15489
##도어	15490
##셰	15491
본지	15492
손맛	15493
임차	15494
젊음	15495
동산	15496
패딩	15497
AD	15498
콘텐츠	15499
##제한	15500
관계없이	15501
구매자	15502
피겨	15503
르	15504
##뺀	15505
클레	15506
과열	15507
도의	15508
동부	15509
범하	15510
적발	15511
평야	15512
대제	15513
영미	15514
##껌	15515
##메랄	15516
회선	15517
몸집	15518
직권	15519
환멸	15520
폄하	15521
관용	15522
국산	15523
만장일치	15524
##꼽	15525
깜	15526
브레	15527
봉황	15528
불분명	15529
##왜	15530
찬란	15531
내려졌	15532
노고	15533
감안	15534
b	15535
면모	15536
##라스	15537
갸	15538
외양	15539
라틴어	15540
##연합	15541
시승	15542
린다	15543
카네	15544
다간	15545
83	15546
일구	15547
한인	15548
노후	15549
보탬	15550
피어나	15551
요건	15552
섭취	15553
전두환	15554
도안	15555
물산	15556
얽매이	15557
용맹	15558
붐	15559
맛난	15560
혈중	15561
의연	15562
42	15563
스타디움	15564
발레단	15565
기생충	15566
순응	15567
G	15568
굶주림	15569
##노미	15570
생태	15571
걸림돌	15572
47	15573
반입	15574
N	15575
정치가	15576
##존	15577
일임	15578
원활	15579
미역	15580
유자	15581
글루	15582
싱어	15583
표준	15584
드러났	15585
공용	15586
##왓	15587
선후배	15588
구현	15589
성교	15590
침공	15591
서북	15592
톱스타	15593
##않	15594
성원	15595
##드로	15596
의향	15597
꺄	15598
드래	15599
골머리	15600
원희	15601
대관령	15602
연립	15603
주간	15604
사교육	15605
카스	15606
불순	15607
##께요	15608
##시원	15609
제설	15610
해결사	15611
비료	15612
##임자	15613
노니	15614
재작	15615
빙판	15616
한낮	15617
전사자	15618
##아찌	15619
압축	15620
결별	15621
협연	15622
양궁	15623
조약	15624
연휴	15625
##나다	15626
엄연	15627
쌍꺼풀	15628
퍼스트	15629
그러므로	15630
선율	15631
##월드	15632
방랑	15633
콸	15634
소리쳤	15635
성우	15636
태권	15637
사운드	15638
들어맞	15639
스트리	15640
열의	15641
원대	15642
영락	15643
대학가	15644
인체	15645
1500	15646
톱니	15647
두말	15648
사격장	15649
인디	15650
이슬	15651
막바지	15652
캐피털	15653
매립	15654
소액	15655
쉬웠	15656
맞아떨	15657
비기	15658
CBS	15659
심연	15660
통상	15661
부양	15662
돈벌이	15663
악용	15664
##청사	15665
황후	15666
대작	15667
땔	15668
##세포	15669
합해	15670
##섰	15671
태양열	15672
궂	15673
태백	15674
아뢰	15675
자란다	15676
##뵈	15677
##장고	15678
##래기	15679
께	15680
파탄	15681
생소	15682
순천	15683
선호	15684
핸	15685
플러그	15686
아쿠아	15687
##콸	15688
AV	15689
화석	15690
당나귀	15691
장안	15692
기후	15693
사업체	15694
개막식	15695
스테인	15696
트레이	15697
입소	15698
49	15699
덩이	15700
작용	15701
실추	15702
##힙	15703
##란도	15704
때론	15705
원심	15706
판명	15707
짭짤	15708
융	15709
무궁화	15710
사회봉사	15711
왜군	15712
종착	15713
정종	15714
친일파	15715
이원	15716
주어지	15717
강대	15718
앞부분	15719
그리스	15720
국사	15721
흔들릴	15722
##늄	15723
노르	15724
챔프	15725
대법원	15726
트렌드	15727
밑반찬	15728
세요	15729
쟁	15730
통통	15731
실무자	15732
##쿠스	15733
자청	15734
식물원	15735
불쾌감	15736
까닭	15737
##블리	15738
##휙	15739
깜찍	15740
엄연히	15741
나흘	15742
전리	15743
##타나	15744
샤오	15745
버젓이	15746
과천	15747
쥘	15748
일몰	15749
판도	15750
탤런트	15751
팜	15752
냐고	15753
##파니	15754
봉우리	15755
공교	15756
석류	15757
찜질	15758
##셀러	15759
운동가	15760
읽히	15761
엽기	15762
평창동	15763
유대	15764
k	15765
준우승	15766
간혹	15767
##깜	15768
캐서	15769
알파	15770
사대부	15771
체리	15772
학자	15773
어유	15774
변동	15775
소회	15776
승전	15777
세레	15778
우크라이나	15779
이달	15780
애착	15781
산기	15782
스마일	15783
##승부	15784
to	15785
##헐	15786
두껍	15787
헬로	15788
사절	15789
1950	15790
덱	15791
이코	15792
커넥	15793
정조	15794
패러	15795
오영	15796
미뤘	15797
혼잡	15798
심장병	15799
##도사	15800
섣	15801
분위	15802
투기	15803
##니아	15804
##왈	15805
활발	15806
판매자	15807
]	15808
거느리	15809
증손	15810
##데스	15811
비로	15812
평원	15813
핍박	15814
700	15815
명나라	15816
장원	15817
근력	15818
한층	15819
쫘	15820
반바지	15821
41	15822
##재판	15823
강자	15824
쏟아부	15825
가치관	15826
슈퍼맨	15827
요지	15828
##섹	15829
눈부	15830
하순	15831
##마크	15832
한수	15833
길들여	15834
별칭	15835
당뇨	15836
의거	15837
난방	15838
보행	15839
롱	15840
퍼포먼스	15841
철폐	15842
순탄	15843
뽑혔	15844
구도	15845
##쁨	15846
쾌락	15847
꺽	15848
인품	15849
삼각형	15850
이슬람	15851
마돈나	15852
냉전	15853
판권	15854
정계	15855
닭발	15856
오사카	15857
만석	15858
연명	15859
호사	15860
##드기	15861
미키	15862
동메달	15863
기업인	15864
진해	15865
충신	15866
오찬	15867
사무총장	15868
말년	15869
박창	15870
접어들	15871
항쟁	15872
57	15873
군자	15874
텃	15875
##투어	15876
##니언	15877
배변	15878
문단	15879
달아오르	15880
흑흑	15881
특사	15882
이카	15883
토박이	15884
장시간	15885
중심부	15886
퇴역	15887
옮겨졌	15888
##말라	15889
총독	15890
유니	15891
투사	15892
우호	15893
실형	15894
물길	15895
인삼	15896
야시장	15897
샐러리맨	15898
계획안	15899
생체	15900
백억	15901
택	15902
되살아나	15903
총경	15904
함락	15905
울릉도	15906
##레기	15907
모태	15908
설움	15909
이아	15910
##곧	15911
성악	15912
전폭	15913
예견	15914
제각기	15915
총력	15916
건립	15917
존엄	15918
##EM	15919
공영	15920
개정	15921
스케일	15922
불교	15923
무적	15924
살펴봐야	15925
불허	15926
트러블	15927
##앓	15928
폐수	15929
책정	15930
마사	15931
진실로	15932
한의사	15933
철거민	15934
모션	15935
봉사자	15936
ID	15937
옹기	15938
##악산	15939
백과사전	15940
트인	15941
두피	15942
캐디	15943
등극	15944
원전	15945
자본주의	15946
릴레이	15947
황성	15948
에스프레소	15949
대진	15950
혼전	15951
타구	15952
전성기	15953
낙관	15954
변종	15955
왼발	15956
사대	15957
김포	15958
마인드	15959
##베이터	15960
당선자	15961
스텔	15962
요한	15963
어려워졌	15964
##구름	15965
##진다면	15966
퉤	15967
윤리학	15968
통솔	15969
도록	15970
인센티브	15971
평지	15972
36	15973
교인	15974
현감	15975
천상	15976
살림살이	15977
푸른색	15978
문건	15979
기에	15980
##쌩	15981
한겨	15982
억류	15983
헌금	15984
학번	15985
유입	15986
베일	15987
##페이스	15988
d	15989
##W	15990
##비전	15991
담백	15992
이라크	15993
미친다	15994
주황	15995
사단장	15996
자유자재	15997
임상시험	15998
원단	15999
음대	16000
화신	16001
2011	16002
메이플	16003
에어백	16004
페리	16005
##녔	16006
위시	16007
오보	16008
행해	16009
와이파이	16010
박동	16011
연례	16012
스코	16013
쇄도	16014
민혁	16015
친히	16016
수립	16017
쇄	16018
무스	16019
라며	16020
재판부	16021
화기	16022
교구	16023
##뭇	16024
알맞	16025
재질	16026
교활	16027
보쌈	16028
##트라이트	16029
##맺	16030
브랜	16031
탄력	16032
관대	16033
부다	16034
오차	16035
췌장	16036
이변	16037
놓였	16038
수완	16039
성직자	16040
전언	16041
기피	16042
씰	16043
기종	16044
문예	16045
밀폐	16046
접목	16047
히말라야	16048
위임	16049
유목	16050
차체	16051
이치	16052
스틸	16053
담당관	16054
지방산	16055
해진다	16056
개점	16057
선거법	16058
지식인	16059
조선족	16060
성능	16061
경희	16062
게을	16063
기타리스트	16064
프랑스인	16065
공감대	16066
헤딩	16067
경솔	16068
정승	16069
전지	16070
식도	16071
극한	16072
두고두고	16073
윗부분	16074
지날	16075
인천항	16076
공소장	16077
적중	16078
이오	16079
쟈	16080
일용직	16081
확산	16082
발효	16083
##비치	16084
노랫말	16085
방조	16086
오호	16087
조공	16088
러블리	16089
전권	16090
징후	16091
장정	16092
약수	16093
재판관	16094
정경	16095
프로그래밍	16096
감량	16097
연구자	16098
수급	16099
정제	16100
낙마	16101
원로원	16102
말레이시아	16103
남하	16104
띌	16105
고고	16106
카탈	16107
월스트리트	16108
기압	16109
통신사	16110
고사하고	16111
돌이켜	16112
##숩	16113
바흐	16114
후계	16115
규제	16116
태동	16117
스티	16118
배당금	16119
##79	16120
##어냈	16121
인위	16122
얽매	16123
회부	16124
울트라	16125
##튜	16126
경은	16127
천명	16128
쨍	16129
혼합	16130
지날수록	16131
식민	16132
떨림	16133
캐논	16134
이선	16135
도취	16136
흘러들	16137
뜻깊	16138
브루스	16139
볼리비아	16140
홍역	16141
일류	16142
##정부	16143
아부지	16144
뜀	16145
##이드	16146
자연사	16147
스스	16148
몰수	16149
외주	16150
갈리	16151
사이클	16152
심성	16153
따끈	16154
본전	16155
기량	16156
학식	16157
킬로	16158
##반찬	16159
나노	16160
순발력	16161
앞면	16162
발상	16163
친환경	16164
매실	16165
기발	16166
칭송	16167
원통	16168
하역	16169
김성	16170
그레	16171
##그머니	16172
##쫄	16173
그래서인지	16174
##차림	16175
펼쳐질	16176
##볐	16177
토너먼트	16178
살아오	16179
곡인	16180
남짓	16181
라스트	16182
퀸	16183
선입견	16184
##절미	16185
르네상스	16186
볶음밥	16187
선천	16188
도약	16189
모발	16190
령	16191
이어질	16192
지참	16193
늘린	16194
청나라	16195
##슛	16196
적색	16197
##덫	16198
성금	16199
잣	16200
피츠버그	16201
##맞이	16202
##메라	16203
허상	16204
해부학	16205
열대	16206
태수	16207
예물	16208
컴퍼니	16209
XX	16210
프라이드	16211
달하	16212
##신호	16213
결탁	16214
숙명	16215
남원	16216
면밀히	16217
유별	16218
랜드마크	16219
기선	16220
결선	16221
1998	16222
방콕	16223
실리콘	16224
##잭	16225
표기	16226
제쳐	16227
취득	16228
참신	16229
호로	16230
여운	16231
방위	16232
틱	16233
##지휘	16234
정선	16235
수질	16236
넘어선	16237
##즐	16238
세분	16239
반품	16240
동성애	16241
딜레마	16242
레퍼토리	16243
구설	16244
참외	16245
역류	16246
신축	16247
공해	16248
사무직	16249
프렌	16250
조합원	16251
창출	16252
왜구	16253
유엔	16254
##동아	16255
##수리	16256
##갚	16257
트랜	16258
현역	16259
재원	16260
승선	16261
제독	16262
가느다란	16263
##페이	16264
적립	16265
부주	16266
알루미늄	16267
농업	16268
천리	16269
원화	16270
미셸	16271
자부	16272
참사	16273
주조	16274
꼬리표	16275
체코	16276
##랑카	16277
민원인	16278
여행자	16279
찬사	16280
시그널	16281
제작진	16282
가습기	16283
정순	16284
유미	16285
o	16286
배드	16287
기법	16288
블루	16289
총재	16290
송영길	16291
불똥	16292
매거진	16293
창업자	16294
드러낼	16295
환승	16296
적재	16297
선별	16298
종식	16299
##광장	16300
녀	16301
블로	16302
무소	16303
관세	16304
신봉	16305
챙	16306
서영	16307
찬미	16308
뱃살	16309
##처분	16310
검소	16311
연계	16312
##세이	16313
애비	16314
테크놀로지	16315
포교	16316
투병	16317
##소스	16318
훈훈	16319
천황	16320
성황	16321
##e	16322
디디	16323
포맷	16324
존나	16325
일파	16326
윌리엄스	16327
##임새	16328
초고	16329
예시	16330
서해안	16331
로미	16332
경동	16333
분분	16334
속성	16335
일본식	16336
무주택	16337
IR	16338
인공위성	16339
유신	16340
쉬우	16341
##쏭	16342
송환	16343
##거품	16344
피스	16345
노총	16346
부원장	16347
신통	16348
애니메이션	16349
이윤	16350
경유	16351
01	16352
열도	16353
상속세	16354
원점	16355
##폿	16356
어울렸	16357
현지인	16358
굴비	16359
##68	16360
결핍	16361
계주	16362
##싯	16363
들여오	16364
드립	16365
##잣집	16366
시국	16367
##훼	16368
셨	16369
존속	16370
레인지	16371
곪	16372
##소년	16373
모바일	16374
위암	16375
경차	16376
절세	16377
벅	16378
하급	16379
서포터	16380
당파	16381
##ip	16382
일직	16383
이브	16384
놋	16385
투옥	16386
섭리	16387
구먼	16388
집념	16389
핵무기	16390
강풍	16391
##띄	16392
열병	16393
큼직	16394
부르짖	16395
각계	16396
두터운	16397
가리켜	16398
높일	16399
재학	16400
살상	16401
니코	16402
족히	16403
##흠	16404
넓혀	16405
요일	16406
##낌	16407
초창기	16408
루이	16409
공습	16410
돌아섰	16411
기니	16412
무화	16413
곗	16414
부조리	16415
예기	16416
각양각색	16417
발사대	16418
흐를	16419
생크림	16420
##곽	16421
급제	16422
##수지	16423
=	16424
##올랐	16425
대국민	16426
열거	16427
이견	16428
구축	16429
창단	16430
간신	16431
자본금	16432
불린다	16433
종교인	16434
적나라	16435
##더스	16436
실상	16437
원작	16438
조업	16439
횡포	16440
일조	16441
77	16442
레전드	16443
1979	16444
부각	16445
##샵	16446
답사	16447
부진	16448
성폭력	16449
냉장	16450
우러	16451
닥칠	16452
실과	16453
활동가	16454
억눌	16455
안전망	16456
외교부	16457
##스윙	16458
내세울	16459
심의	16460
선단	16461
##닙	16462
통폐합	16463
정반대	16464
오늘날	16465
2010	16466
##쪼	16467
불법행위	16468
맛볼	16469
김형	16470
꽹	16471
##펠러	16472
장학사	16473
골고	16474
3000	16475
컬	16476
청도	16477
생략	16478
선지	16479
##뽀	16480
강화도	16481
혈통	16482
들어섰	16483
박해	16484
밀림	16485
신랄	16486
치가	16487
##AT	16488
브리지	16489
성안	16490
관하	16491
그래픽	16492
보험료	16493
만만찮	16494
태자	16495
유년	16496
수억	16497
W	16498
심해졌	16499
완고	16500
나위	16501
갉	16502
저기압	16503
에겐	16504
찬바람	16505
노무	16506
##다란	16507
##슭	16508
구강	16509
니체	16510
발하	16511
건강식	16512
정규	16513
랭크	16514
방전	16515
이따금	16516
종자	16517
아프가니스탄	16518
삼청	16519
##연구	16520
##위치	16521
선언문	16522
아이스하키	16523
##딪	16524
88	16525
##세대	16526
남대문	16527
반도체	16528
엄밀히	16529
통속	16530
관원	16531
##애나	16532
장판	16533
미흡	16534
58	16535
열띤	16536
따온	16537
앞당	16538
##륵	16539
구성원	16540
어울	16541
##굿	16542
카이로	16543
불씨	16544
생화학	16545
백업	16546
청렴	16547
벌금형	16548
운용	16549
##닐	16550
접한	16551
남측	16552
정부군	16553
전도사	16554
통계	16555
교섭	16556
일러스트	16557
##낍	16558
격파	16559
질의	16560
조용필	16561
파운드	16562
NG	16563
영성	16564
가꿔	16565
노르웨이	16566
여류	16567
토했	16568
빨치산	16569
실존	16570
끔	16571
##축제	16572
헤아리	16573
자며	16574
총동원	16575
랑	16576
동결	16577
바람직	16578
마운트	16579
즈	16580
엇갈	16581
재직	16582
하이라이트	16583
안드로이드	16584
보직	16585
##레라	16586
간소	16587
공단	16588
자태	16589
의기투합	16590
부업	16591
##71	16592
수은	16593
선하	16594
실크	16595
건넸	16596
근교	16597
##웨어	16598
번들	16599
대추	16600
AB	16601
성조	16602
##딛	16603
창설	16604
당산	16605
연출가	16606
네이	16607
경건	16608
김수	16609
##일치	16610
신호탄	16611
급선무	16612
언저리	16613
안드로	16614
법사	16615
그랑프리	16616
##금융	16617
컨설팅	16618
불문	16619
파울	16620
MVP	16621
살필	16622
양식장	16623
##Q	16624
삑	16625
번영	16626
##체인	16627
##65	16628
매치	16629
후각	16630
성령	16631
늠	16632
담판	16633
보조금	16634
네임	16635
이어졌	16636
모사	16637
##볶	16638
오대	16639
##박사	16640
비엔나	16641
명확히	16642
##거진	16643
합참	16644
수목원	16645
공예	16646
밀접	16647
울퉁불퉁	16648
할당	16649
접점	16650
앙금	16651
태생	16652
찰스	16653
켤레	16654
##우주	16655
산사태	16656
심리전	16657
개원	16658
유방	16659
명작	16660
박상	16661
동백	16662
공석	16663
교토	16664
아줌	16665
암울	16666
은총	16667
퍼센트	16668
통사	16669
한결같이	16670
벤처	16671
제소	16672
##받침	16673
걸작	16674
수분	16675
리스크	16676
안겼	16677
중의원	16678
역효과	16679
면책	16680
정파	16681
##좌석	16682
극히	16683
비스	16684
인들	16685
전자기	16686
여진	16687
쌓았	16688
낙선	16689
화전	16690
##지방	16691
##조부	16692
중개사	16693
동맹국	16694
SW	16695
##로드	16696
##샐	16697
무상	16698
##곗	16699
##ER	16700
전군	16701
신라	16702
변환	16703
누출	16704
이서	16705
##교도	16706
여건	16707
왕성	16708
메이저	16709
상수	16710
쟁탈	16711
캬	16712
##왁	16713
처리장	16714
돋우	16715
사들여	16716
어시스트	16717
조동	16718
매겨	16719
관찰사	16720
이조	16721
칼라	16722
97	16723
##버터	16724
아웃렛	16725
이뤄지고	16726
꼼수	16727
신창	16728
가공	16729
성취	16730
료	16731
화음	16732
희소	16733
##퍼드	16734
텍사스	16735
논거	16736
맨해튼	16737
되물	16738
64	16739
진보	16740
컴백	16741
터득	16742
숙였	16743
설득력	16744
##캅	16745
포화	16746
카르	16747
런	16748
익혔	16749
모빌	16750
섬유	16751
모호	16752
유관	16753
자릿	16754
##마치	16755
배상금	16756
허영	16757
마켓	16758
120	16759
아몬드	16760
까마득	16761
##비용	16762
하우	16763
얼큰	16764
플리	16765
CEO	16766
송치	16767
##권자	16768
아우디	16769
특혜	16770
묻어나	16771
신년	16772
남발	16773
기말	16774
##네트	16775
##신기	16776
##나비	16777
##가치	16778
엇갈렸	16779
총명	16780
목성	16781
지바	16782
다고	16783
부풀려	16784
개막	16785
반값	16786
테스	16787
영생	16788
증자	16789
서해	16790
방출	16791
로우	16792
이즈	16793
마이너스	16794
##쭙	16795
젓갈	16796
조처	16797
경영자	16798
겨자	16799
##에스	16800
실화	16801
밀크	16802
청주	16803
홍삼	16804
매스컴	16805
##기부	16806
피싱	16807
갈치	16808
##탄올	16809
총대	16810
안일	16811
##물산	16812
뇌리	16813
남다른	16814
국무총리	16815
메이크	16816
울창	16817
##영상	16818
좌지우지	16819
주년	16820
아역	16821
떠올렸	16822
노사	16823
우즈	16824
포용	16825
[	16826
미륵	16827
한영	16828
이관	16829
덮밥	16830
##뎃	16831
인지도	16832
순교자	16833
역습	16834
래퍼	16835
방재	16836
##돗	16837
전향	16838
분말	16839
기입	16840
병자	16841
테리	16842
고고학	16843
방역	16844
원가	16845
친밀감	16846
키트	16847
모로코	16848
아웅	16849
궁극	16850
민생	16851
동자	16852
##떴	16853
사행	16854
사무관	16855
외무	16856
##옴	16857
##볕	16858
암석	16859
브루	16860
##클린	16861
냐	16862
불린	16863
추장	16864
##거운	16865
정은	16866
갱신	16867
##일으	16868
뇌졸중	16869
선녀	16870
경미	16871
숟	16872
막연	16873
2002	16874
예정자	16875
톡톡히	16876
용해	16877
편식	16878
일군	16879
쌤	16880
##핵	16881
노년	16882
캐주얼	16883
도사리	16884
베라	16885
피카소	16886
##쪄	16887
우리말	16888
브람	16889
수뇌부	16890
##티나	16891
생강	16892
37	16893
신비주의	16894
안내서	16895
느슨	16896
모음	16897
증기	16898
대주주	16899
뮤지션	16900
##의지	16901
기행	16902
##밸	16903
최정	16904
독도	16905
발랄	16906
성곽	16907
굼	16908
구이	16909
##라이더	16910
대마도	16911
헥	16912
젬	16913
윤정	16914
##드시	16915
나날이	16916
활기찬	16917
변방	16918
지미	16919
처우	16920
벗어났	16921
참회	16922
즐긴	16923
성지	16924
판례	16925
명주	16926
중도	16927
증폭	16928
일간지	16929
92	16930
돋보이	16931
속출	16932
아리랑	16933
청결	16934
새댁	16935
룬	16936
공양	16937
OK	16938
##중기	16939
황금빛	16940
순전히	16941
아전	16942
간편	16943
피칭	16944
선심	16945
뛰어났	16946
보호구역	16947
스페셜	16948
브러	16949
군주	16950
노론	16951
##퇴직	16952
##쌌	16953
축적	16954
대일	16955
이권	16956
때때로	16957
##어붙	16958
만성	16959
규명	16960
하의	16961
습지	16962
방부	16963
##남동	16964
오동	16965
물씬	16966
아재	16967
후끈	16968
51	16969
본연	16970
내정	16971
##훌	16972
성서	16973
참모총장	16974
##밴	16975
면세점	16976
위법	16977
제천	16978
만사	16979
취사	16980
워킹	16981
신세계	16982
아카	16983
세척	16984
박인	16985
당사	16986
넵	16987
천왕	16988
다기	16989
초래	16990
소규모	16991
사활	16992
##정사	16993
직행	16994
창의력	16995
증정	16996
병영	16997
채권자	16998
플라자	16999
2015	17000
차종	17001
개개인	17002
취약	17003
익힐	17004
커뮤니케이션	17005
지영	17006
결렬	17007
넘나들	17008
풍습	17009
닥	17010
다크	17011
##다르	17012
천도	17013
대개	17014
##꼈	17015
신관	17016
동그란	17017
별반	17018
롤링	17019
판서	17020
좌절감	17021
로울	17022
모토	17023
뉘앙스	17024
분지	17025
승기	17026
숙주	17027
진과	17028
허비	17029
반원	17030
분홍	17031
시외버스	17032
공헌	17033
속살	17034
희석	17035
금하	17036
필적	17037
##그로	17038
도산	17039
묵시	17040
##깝	17041
낍	17042
위용	17043
혁명가	17044
파이어	17045
울진	17046
늑	17047
주석	17048
존슨	17049
끗	17050
명시	17051
진경	17052
데드	17053
여간	17054
블러	17055
##원장	17056
굵직	17057
##천리	17058
환원	17059
북방	17060
원천	17061
토핑	17062
85	17063
곤욕	17064
케네디	17065
둥근	17066
##쌔	17067
퓨	17068
##프라	17069
강진	17070
나돌	17071
53	17072
##가족	17073
어려워질	17074
천성	17075
##라마	17076
외할	17077
##토록	17078
정우	17079
성찬	17080
요것	17081
기업가	17082
교직원	17083
일깨워	17084
##헤이	17085
##트롤	17086
##버트	17087
교향곡	17088
비빔	17089
잠식	17090
회생	17091
칭하	17092
공산주의자	17093
2003	17094
전야	17095
학점	17096
겐	17097
환산	17098
문진	17099
펼쳤	17100
브로드웨이	17101
방류	17102
떠올릴	17103
망원	17104
기조	17105
지표	17106
왕래	17107
사극	17108
낱말	17109
레인보	17110
퐁	17111
##ing	17112
프리랜서	17113
가까웠	17114
레이디	17115
##숟	17116
남도	17117
오메가	17118
두각	17119
##다보	17120
강소	17121
사옥	17122
우에	17123
늘려야	17124
인스턴트	17125
한미	17126
거름	17127
충실히	17128
합병증	17129
주권	17130
신학교	17131
선크림	17132
무임	17133
##심장	17134
덴마크	17135
국립대	17136
##베이	17137
올림	17138
느티나무	17139
접착	17140
오클	17141
도형	17142
잠정	17143
##븐	17144
목돈	17145
우라늄	17146
카터	17147
산정	17148
베리	17149
코팅	17150
매끈	17151
북조선	17152
수경	17153
매화	17154
프라이빗	17155
단결	17156
보살핌	17157
씽	17158
증여	17159
행정관	17160
직함	17161
##홈	17162
프랑	17163
기득	17164
상큼	17165
신데렐라	17166
혁신	17167
사의	17168
급상승	17169
##앵	17170
숨결	17171
그쳐	17172
늘릴	17173
위계	17174
거뒀	17175
역전승	17176
김태	17177
리바운드	17178
추석	17179
트램	17180
아토피	17181
공채	17182
채광	17183
곡선	17184
충주	17185
다를까	17186
프란	17187
오브	17188
##의정	17189
절묘	17190
골반	17191
애당초	17192
금메달리스트	17193
대요	17194
몽고	17195
리그	17196
##카와	17197
여래	17198
발병	17199
늘렸	17200
##프스	17201
한우	17202
명사	17203
허덕이	17204
김원	17205
실버	17206
서주	17207
u	17208
장생	17209
방송인	17210
##벵	17211
따졌	17212
전해져	17213
##레드	17214
##레스트	17215
전열	17216
##분자	17217
##콥	17218
SD	17219
페어	17220
운수	17221
##패드	17222
휴먼	17223
경복궁	17224
펼칠	17225
불어나	17226
##맷	17227
전지현	17228
고산	17229
2016	17230
상연	17231
악단	17232
헤비	17233
정류	17234
요금제	17235
개인전	17236
선거구	17237
굴레	17238
노스	17239
부문	17240
가이	17241
멸종	17242
박종	17243
불명예	17244
##르타	17245
HE	17246
가급적	17247
준위	17248
##니시	17249
알뜰	17250
귀속	17251
콜롬비아	17252
##벼	17253
메트로	17254
불공정	17255
마산	17256
##뻗	17257
스미스	17258
다가갔	17259
Z	17260
오키나와	17261
승복	17262
종군	17263
##취업	17264
민들레	17265
최병	17266
권했	17267
상쇄	17268
수식	17269
우즈베키스탄	17270
청송	17271
라이스	17272
내구	17273
꺅	17274
초빙	17275
유료	17276
감돌	17277
네티즌	17278
세안	17279
식중독	17280
서양인	17281
성황리	17282
사명감	17283
입장료	17284
빨강	17285
홍수	17286
랄	17287
l	17288
J	17289
유화	17290
##필드	17291
바우	17292
효능	17293
##이치	17294
병마	17295
예언자	17296
순이	17297
우동	17298
대행사	17299
##포도	17300
로망	17301
정미	17302
환관	17303
엠마	17304
중성	17305
정점	17306
원성	17307
무이	17308
포고	17309
##리그	17310
쇠고기	17311
페스트	17312
삼척	17313
반출	17314
오카	17315
올바르	17316
증권사	17317
항만	17318
설날	17319
주일	17320
부식	17321
빅터	17322
유기농	17323
g	17324
건국	17325
간과	17326
유실	17327
일산	17328
학당	17329
비평가	17330
외압	17331
이재	17332
빙상	17333
함장	17334
미생물	17335
도라	17336
토목	17337
벌거	17338
370	17339
유의	17340
플라이	17341
필승	17342
##이션	17343
견주	17344
미들	17345
인분	17346
국제공항	17347
급변	17348
입소문	17349
시립	17350
해안선	17351
복합	17352
차후	17353
##베르	17354
도루	17355
병역	17356
도수	17357
이온	17358
메워	17359
정맥	17360
수도권	17361
동일시	17362
단체전	17363
힐링	17364
소시	17365
히스	17366
자이언츠	17367
볕	17368
만루	17369
##야구	17370
난이도	17371
투영	17372
개량	17373
노른자	17374
담겼	17375
이점	17376
타개	17377
단기간	17378
봉화	17379
관우	17380
아틀	17381
유로	17382
신다	17383
할지라도	17384
타당	17385
브라우	17386
풍속	17387
종영	17388
코리안	17389
그려졌	17390
##우트	17391
논설	17392
##발전	17393
신인왕	17394
여객	17395
남동쪽	17396
아메리칸	17397
복습	17398
단수	17399
##페스트	17400
대웅전	17401
여력	17402
역사학	17403
110	17404
시제품	17405
남경	17406
이만저만	17407
셀레	17408
가톨릭	17409
광명	17410
넷째	17411
민트	17412
##펌	17413
음색	17414
버크	17415
탯	17416
포럼	17417
등단	17418
장자	17419
간암	17420
개간	17421
태그	17422
잊혀	17423
속사	17424
싹쓸이	17425
##맙	17426
##시타	17427
탄도	17428
논현동	17429
갖춰져	17430
심근	17431
영아	17432
모라	17433
##연구원	17434
##비어	17435
폐회	17436
트위	17437
광역시	17438
꾸준	17439
휠	17440
로이	17441
##넜	17442
내리막	17443
가솔린	17444
으음	17445
떵	17446
##전쟁	17447
##떵	17448
##핸	17449
부마	17450
유년기	17451
좁히	17452
생명력	17453
주역	17454
적격	17455
텍스트	17456
##흡	17457
샬	17458
선거일	17459
2007	17460
콤	17461
관전	17462
행정부	17463
##둘러	17464
품격	17465
맞벌이	17466
담합	17467
넓히	17468
고열	17469
만수	17470
은유	17471
대소	17472
병행	17473
끊임없	17474
##네스	17475
죄악	17476
누적	17477
고등어	17478
유보	17479
포터	17480
##동력	17481
새싹	17482
극작가	17483
순한	17484
##밋	17485
##헛	17486
도가니	17487
상층	17488
수십억	17489
##레이트	17490
모름	17491
교향악단	17492
저작권	17493
벌렸	17494
양평	17495
영하	17496
김일	17497
빻	17498
장본	17499
전집	17500
게리	17501
업무상	17502
통풍	17503
센트	17504
##얗	17505
챌	17506
꾀하	17507
52	17508
플래너	17509
주군	17510
돌아볼	17511
전매	17512
맞대결	17513
우선시	17514
게으름	17515
조례	17516
펍	17517
낸다는	17518
여생	17519
완결	17520
션	17521
##마르	17522
생식	17523
성체	17524
##읽	17525
여단	17526
##그네	17527
닐	17528
증원	17529
껑충	17530
##뮤	17531
진두지휘	17532
림	17533
감촉	17534
명명	17535
##부족	17536
수용자	17537
그리스도	17538
세븐	17539
불출	17540
구글	17541
김윤	17542
게르	17543
초저	17544
열망	17545
이뤄질	17546
월간	17547
##룽지	17548
김우	17549
진우	17550
에드워드	17551
자위대	17552
왕후	17553
시종일관	17554
합니다만	17555
##ry	17556
건재	17557
진다면	17558
살롱	17559
빅토르	17560
유망	17561
양면	17562
비주얼	17563
기복	17564
추앙	17565
주한	17566
관행	17567
러시	17568
이루어져	17569
분화	17570
보르	17571
호이	17572
지녔	17573
가했	17574
라이선스	17575
##네시	17576
멤	17577
본받	17578
제후	17579
뒷받침	17580
승률	17581
명당	17582
개정안	17583
이병	17584
홑	17585
리스	17586
글라스	17587
##컷	17588
##x	17589
만연	17590
가창	17591
운하	17592
##컨대	17593
##75	17594
국고	17595
##부진	17596
샤	17597
포문	17598
쩜	17599
갖춰야	17600
친숙	17601
외장	17602
지도부	17603
54	17604
에베	17605
##댑	17606
##등기	17607
원어	17608
스튜	17609
무정	17610
성자	17611
환율	17612
라우	17613
가전	17614
노동청	17615
인데	17616
산은	17617
배움	17618
칠레	17619
꾸렸	17620
이구	17621
##LL	17622
후원회	17623
샘물	17624
##TE	17625
컨트리	17626
##헥	17627
열풍	17628
기해	17629
제방	17630
정관	17631
두꺼	17632
지켜온	17633
건축사	17634
우드	17635
##느러미	17636
공명	17637
박정	17638
the	17639
주의자	17640
공대	17641
다마	17642
파이터	17643
대여섯	17644
종파	17645
축소	17646
포커스	17647
인방	17648
치세	17649
세종	17650
나주	17651
마가	17652
셌	17653
계량	17654
여드름	17655
외대	17656
부평	17657
전산망	17658
몸체	17659
요렇게	17660
##셴	17661
유래	17662
최하	17663
시향	17664
옥중	17665
##일비	17666
놀라울	17667
##관광	17668
중증	17669
56	17670
365	17671
202	17672
##기계	17673
현진	17674
##쉐	17675
일절	17676
일쑤	17677
하룻	17678
##문트	17679
오클랜드	17680
일환	17681
벨기에	17682
시정	17683
무색	17684
작심	17685
듀	17686
##스크	17687
##h	17688
허약	17689
살폈	17690
김정일	17691
괄	17692
공생	17693
구비	17694
##르기	17695
경영학	17696
##톡	17697
최고점	17698
어긋	17699
인산	17700
온정	17701
강민호	17702
깻잎	17703
겸비	17704
201	17705
오노	17706
발진	17707
한남동	17708
클리	17709
뒤흔들	17710
논어	17711
헬리	17712
갖춰진	17713
유엔군	17714
##날레	17715
딥	17716
의약	17717
요하	17718
색감	17719
한솔	17720
박정희	17721
교우	17722
재래식	17723
곁들여	17724
위도	17725
나우	17726
더디	17727
주거지	17728
씨씨	17729
ㅊ	17730
상당수	17731
편리	17732
양국	17733
소형차	17734
불러일으	17735
안드레	17736
호남	17737
세이프	17738
충족	17739
숙련	17740
더없이	17741
메이커	17742
쇠락	17743
##닮	17744
학사	17745
혔	17746
BMW	17747
응용	17748
후반부	17749
대파	17750
어르	17751
우지	17752
탈레반	17753
안나	17754
프랑크	17755
석사	17756
걸어갔	17757
막연히	17758
대연	17759
예고편	17760
강점	17761
서거	17762
U	17763
##성기	17764
대각	17765
94	17766
##맬	17767
##러미	17768
털어놨	17769
##서관	17770
소연	17771
앞세운	17772
거쳐야	17773
니트	17774
하위	17775
##삶	17776
농민	17777
업종	17778
내과	17779
44	17780
서독	17781
폴리	17782
루카	17783
중개업	17784
102	17785
OST	17786
찬반	17787
수빈	17788
상한가	17789
희극	17790
168	17791
특약	17792
법원장	17793
착공	17794
공휴일	17795
탈바꿈	17796
##덱스	17797
눅	17798
프로세서	17799
묘소	17800
숙면	17801
이시	17802
강태	17803
켤	17804
수렴	17805
상향	17806
팝업	17807
오스트리아	17808
현정	17809
##산업	17810
지역구	17811
##레오	17812
이해관계	17813
아이폰	17814
테크닉	17815
도스	17816
능가	17817
전반전	17818
떨렸	17819
역경	17820
들어설	17821
대법관	17822
캅	17823
##보리	17824
펠리	17825
불릴	17826
헨	17827
빳	17828
니콜	17829
소명	17830
프라이버시	17831
##빳	17832
유키	17833
면치	17834
마자	17835
테너	17836
남양주	17837
만리	17838
##70	17839
벚	17840
대체로	17841
닉슨	17842
걸쳐서	17843
그람	17844
SM	17845
포드	17846
체감	17847
##젝	17848
외환	17849
360	17850
원동력	17851
티브	17852
나폴레옹	17853
김소	17854
행태	17855
앙드레	17856
단층	17857
203	17858
##노스	17859
콘퍼런스	17860
IMF	17861
이여	17862
##깽	17863
여당	17864
사선	17865
여백	17866
윈도	17867
하류	17868
선방	17869
스즈키	17870
##넉	17871
잿빛	17872
한명	17873
내세운	17874
독창	17875
수록	17876
울림	17877
시킨다는	17878
왕권	17879
##정식	17880
중점	17881
총선	17882
가압류	17883
기승	17884
대용	17885
중소	17886
장단점	17887
데이터베이스	17888
가할	17889
스테이션	17890
##각형	17891
불고기	17892
##짭	17893
부제	17894
등심	17895
김태희	17896
십상	17897
청사진	17898
##팜	17899
쌕	17900
##종합	17901
##란트	17902
몰릴	17903
귀양	17904
나마	17905
소요	17906
카나	17907
양구	17908
닷	17909
화교	17910
##전지	17911
의인	17912
##섶	17913
기나긴	17914
티아	17915
옐로	17916
창당	17917
연장전	17918
범한	17919
프레스	17920
투철	17921
항공모함	17922
브라운	17923
대운	17924
전광	17925
공화	17926
my	17927
소양	17928
림프	17929
여명	17930
골몰	17931
링컨	17932
교황청	17933
##대왕	17934
안동	17935
사미	17936
말미	17937
도지사	17938
디스플레이	17939
트러	17940
연합회	17941
과반수	17942
스릴러	17943
로열티	17944
가산점	17945
##촛	17946
줄인	17947
어휘	17948
쾰	17949
슬기	17950
산행	17951
분비	17952
공청회	17953
주어졌	17954
관능	17955
휘둘렀	17956
김승	17957
이근	17958
악재	17959
기러기	17960
경쟁력	17961
204	17962
당대	17963
소수자	17964
트랩	17965
최저	17966
##욘	17967
항공편	17968
지저	17969
줄여서	17970
영진	17971
##보살	17972
선회	17973
최전	17974
갭	17975
고양	17976
콤비	17977
개국	17978
의례	17979
방대	17980
김순	17981
남해	17982
느닷	17983
167	17984
외야	17985
김재	17986
기관차	17987
##재단	17988
RO	17989
옆면	17990
열혈	17991
두께	17992
억대	17993
협동	17994
지난해	17995
숄	17996
도표	17997
배석	17998
원반	17999
멱	18000
서당	18001
정진	18002
수렁	18003
소실	18004
##62	18005
이뤄지는	18006
옥스퍼드	18007
마이클	18008
드러냈	18009
정연	18010
빛났	18011
실용	18012
고난도	18013
터빈	18014
금융업	18015
스푼	18016
##정책	18017
길잡이	18018
공신	18019
두근두근	18020
영도	18021
제하	18022
당뇨병	18023
계층	18024
AS	18025
정국	18026
금강산	18027
회가	18028
이적	18029
에미	18030
기표	18031
심혈	18032
추이	18033
하부	18034
산수	18035
독식	18036
칫	18037
##둡	18038
외교통상부	18039
웨어	18040
기온	18041
46	18042
샤넬	18043
페미니즘	18044
피서	18045
정재	18046
평론	18047
43	18048
피처	18049
장엄	18050
센트럴	18051
##찼	18052
연동	18053
어진	18054
덧붙이	18055
자전	18056
##나들	18057
##부르크	18058
기념행사	18059
선적	18060
물리쳤	18061
콕	18062
##프리	18063
프로게이머	18064
월등	18065
조목조목	18066
공예품	18067
유수	18068
신춘문예	18069
황소	18070
##r	18071
윤주	18072
##경제	18073
교시	18074
업장	18075
권리금	18076
##썬	18077
연안	18078
주축	18079
에덴	18080
재보	18081
성행위	18082
미주	18083
떠오를	18084
콜린	18085
##AR	18086
체험학습	18087
고야	18088
##무라	18089
이질	18090
음악인	18091
이튿날	18092
스카	18093
시크릿	18094
볼보	18095
캄보디아	18096
이념	18097
시트콤	18098
##블로	18099
잠재력	18100
어스	18101
전범	18102
감내	18103
힌	18104
대학원생	18105
로라	18106
으리	18107
버드	18108
쥬	18109
선선	18110
엔트리	18111
수혜자	18112
미개	18113
돌파구	18114
기근	18115
임해	18116
##핏	18117
##씽	18118
베가	18119
포식	18120
이완	18121
시월	18122
거주자	18123
과식	18124
학자금	18125
친일	18126
공직자	18127
내디	18128
스코어	18129
줄였	18130
의정부	18131
##지물	18132
좌상	18133
지아	18134
특강	18135
##찌개	18136
상조	18137
남친	18138
1995	18139
##리학	18140
재선	18141
조속	18142
기교	18143
계책	18144
73	18145
징크스	18146
임차인	18147
베이스볼	18148
이타	18149
천호	18150
난해	18151
##두르	18152
금천	18153
확연히	18154
##요금	18155
구로	18156
전승	18157
갬	18158
클라라	18159
부도덕	18160
마운	18161
##융합	18162
못함	18163
##조합	18164
컨설턴트	18165
지평선	18166
##인트	18167
변모	18168
군부	18169
본업	18170
##모리	18171
신주	18172
추진력	18173
다각	18174
##기름	18175
스페	18176
윤기	18177
국보	18178
영해	18179
육사	18180
##텍	18181
##윙	18182
면역	18183
KBS	18184
그해	18185
마장	18186
자화	18187
나래	18188
노마	18189
버그	18190
인접	18191
79	18192
협의회	18193
다이어	18194
일궈	18195
인대	18196
내비치	18197
##오스	18198
산문	18199
앞바다	18200
부과	18201
저렇	18202
89	18203
넘쳤	18204
폴로	18205
실속	18206
승부조작	18207
자외선	18208
통용	18209
이뤄지	18210
알프스	18211
케빈	18212
음란물	18213
적법	18214
250	18215
수강료	18216
##봬	18217
게이지	18218
##령관	18219
진중	18220
토니	18221
농협	18222
고안	18223
긍지	18224
격차	18225
우승컵	18226
내건	18227
##ay	18228
RPG	18229
무용지물	18230
컨벤션	18231
처장	18232
추상	18233
알로	18234
적잖	18235
산중	18236
충만	18237
산지	18238
##퍼스	18239
KB	18240
샴	18241
##룰	18242
전임자	18243
##에너지	18244
아낌없이	18245
수교	18246
농축	18247
유분	18248
부사관	18249
고혈압	18250
염색체	18251
워너	18252
닌	18253
380	18254
분교	18255
실재	18256
바삭	18257
급진	18258
편파	18259
값진	18260
판매량	18261
결정짓	18262
##똑	18263
배양	18264
다도	18265
학계	18266
계보	18267
애국심	18268
종전	18269
교통수단	18270
호시	18271
수유	18272
전자파	18273
라틴	18274
거듭나	18275
열연	18276
아키	18277
텄	18278
##ia	18279
##러드	18280
이문	18281
한울	18282
##천동	18283
김민	18284
주의보	18285
딘	18286
항암제	18287
기점	18288
칸트	18289
직선	18290
거쳤	18291
선보일	18292
법령	18293
##퍼트	18294
징역형	18295
홍성	18296
촐	18297
덕수궁	18298
##첼	18299
저명	18300
##둘렀	18301
모던	18302
다나	18303
흑색	18304
아반떼	18305
141	18306
리오	18307
영산	18308
비축	18309
물리학	18310
으뜸	18311
포트	18312
##사전	18313
수려	18314
##태평양	18315
연장선	18316
세계인	18317
제휴	18318
융자	18319
왕립	18320
무릅	18321
불운	18322
괴담	18323
구동	18324
CA	18325
외무성	18326
등기부	18327
예년	18328
대거	18329
##얏	18330
국부	18331
랠리	18332
개탄	18333
이은	18334
##믹	18335
비정규직	18336
연한	18337
감면	18338
##76	18339
350	18340
마왕	18341
과감히	18342
벨리	18343
##쌓	18344
합작	18345
회고	18346
팰	18347
옭	18348
토기	18349
앨리	18350
군림	18351
평점	18352
아메리카	18353
쪘	18354
중도금	18355
##스름	18356
경각심	18357
아바타	18358
학연	18359
사포	18360
코믹	18361
##로스	18362
합하	18363
다니까	18364
풀타임	18365
회자	18366
가령	18367
##y	18368
인색	18369
상여금	18370
관사	18371
##베스	18372
최대치	18373
울산	18374
알레	18375
숙청	18376
you	18377
##씰	18378
독선	18379
공관	18380
다시마	18381
부전	18382
가평	18383
벌어들인	18384
계통	18385
버클리	18386
신생	18387
##테일	18388
두리	18389
##나물	18390
단조	18391
단면	18392
##교회	18393
메기	18394
관은	18395
부귀	18396
영농	18397
북한산	18398
지칭	18399
원목	18400
루스	18401
요절	18402
재규어	18403
체불	18404
웰빙	18405
공시	18406
##넥	18407
내무부	18408
괴리	18409
최장	18410
신조	18411
입출	18412
미각	18413
세끼	18414
플루	18415
휩	18416
##뎅	18417
제정	18418
건너갔	18419
숀	18420
광안	18421
##수기	18422
친족	18423
공기업	18424
아르헨티나	18425
오롯	18426
홀몸	18427
징병	18428
빈약	18429
덕목	18430
08	18431
연사	18432
황해	18433
교통비	18434
동방	18435
중시	18436
##냘	18437
전락	18438
숨졌	18439
##부상	18440
어여	18441
구정	18442
##동안	18443
요게	18444
매끄럽	18445
군단	18446
도보	18447
팅	18448
##젯	18449
f	18450
간만	18451
한문	18452
홀대	18453
게릴라	18454
월등히	18455
단군	18456
거머쥐	18457
미야	18458
빈도	18459
넘나드	18460
면면	18461
신사동	18462
헤아	18463
수비수	18464
후한	18465
급속히	18466
촘촘	18467
키워드	18468
자아낸다	18469
황색	18470
##부르	18471
##먼드	18472
오산	18473
KTX	18474
형평	18475
주총	18476
모유	18477
유희	18478
박현	18479
오랑	18480
반목	18481
택할	18482
선례	18483
평탄	18484
아닙	18485
거느린	18486
중앙지	18487
드롭	18488
바이올리니스트	18489
요시	18490
통치자	18491
실사	18492
박대	18493
해로운	18494
콩고	18495
비늘	18496
`	18497
관동	18498
부림	18499
트래	18500
홈피	18501
송전탑	18502
석회	18503
이랑	18504
탑재	18505
공상	18506
테일러	18507
김학	18508
스로	18509
##쯔	18510
설악산	18511
논술	18512
우대	18513
내림	18514
입주자	18515
##바라	18516
애틀랜타	18517
헌납	18518
엄중	18519
관공서	18520
복고	18521
자연재해	18522
##IN	18523
편법	18524
##솟	18525
천일	18526
국빈	18527
인포	18528
##천후	18529
김혜	18530
번창	18531
소프라노	18532
##가짐	18533
암묵	18534
5000	18535
주걱	18536
꽥	18537
탐방	18538
수시	18539
추세	18540
헨리	18541
구가	18542
이마트	18543
x	18544
차입	18545
맞먹	18546
영상물	18547
잉태	18548
진가	18549
뼈대	18550
##급식	18551
기용	18552
##봄	18553
확진	18554
가미	18555
재임	18556
1996	18557
뭇	18558
차근	18559
원내	18560
페스	18561
슬로	18562
보임	18563
조림	18564
꼬막	18565
즙	18566
##대문	18567
시외	18568
##우병	18569
##OU	18570
AM	18571
L	18572
##파크	18573
파키스탄	18574
##짜기	18575
분출	18576
##뀐	18577
뉜	18578
총사령관	18579
발대식	18580
디렉	18581
불거	18582
양키스	18583
세로	18584
##과학	18585
프로덕션	18586
값싼	18587
인건비	18588
제동	18589
249	18590
산단	18591
1955	18592
연일	18593
셰익스피어	18594
군요	18595
잇몸	18596
분석가	18597
와해	18598
와일드	18599
진다는	18600
장경	18601
이스라엘	18602
##거래소	18603
출고	18604
크루	18605
이승만	18606
면서	18607
단신	18608
거문고	18609
전가	18610
국악	18611
##지붕	18612
##럿	18613
역동	18614
삼월	18615
조합장	18616
명백히	18617
성장기	18618
샥	18619
루이지	18620
금리	18621
그림책	18622
금물	18623
플레	18624
봉급	18625
##깻	18626
신시	18627
폄	18628
시흥	18629
철광석	18630
납세	18631
도로는	18632
Me	18633
##톡스	18634
이주노	18635
글래	18636
남서	18637
요법	18638
단자	18639
초판	18640
쿤	18641
Mar	18642
##잼	18643
##챗	18644
우방	18645
세무서	18646
##바라지	18647
##텍스	18648
다나카	18649
김지	18650
##멋	18651
도전자	18652
권세	18653
스폰	18654
패자	18655
09	18656
도미노	18657
포병	18658
강과	18659
##깨비	18660
##높이	18661
장년	18662
봉안	18663
노동력	18664
e	18665
여름휴가	18666
설계사	18667
##픔	18668
임팩트	18669
허다	18670
한성	18671
##럴드	18672
##서트	18673
재량	18674
광물	18675
##뀌	18676
a	18677
워드	18678
만전	18679
황혼	18680
이례	18681
맹목	18682
한남	18683
전해졌	18684
쑥쑥	18685
스코틀랜드	18686
오리지널	18687
태종	18688
다국적	18689
##폈	18690
장편	18691
앤드루	18692
네이버	18693
친선	18694
콜드	18695
##리트	18696
주안	18697
기혼	18698
조차	18699
적십자	18700
식초	18701
약화	18702
막부	18703
##연대	18704
##플로	18705
비해서	18706
부득이	18707
순직	18708
##퉈	18709
##산동	18710
샐러리	18711
남한산성	18712
성토	18713
##지수	18714
아기자기	18715
지석	18716
몽골	18717
웃돈	18718
포진	18719
트릭	18720
명가	18721
##로호	18722
다윗	18723
토의	18724
정치학	18725
##통령	18726
살충제	18727
가격대	18728
수천만	18729
절감	18730
##I	18731
제인	18732
어렴풋	18733
피노	18734
도처	18735
기판	18736
잔재	18737
수렵	18738
체지방	18739
증발	18740
구려	18741
저울질	18742
가벼	18743
곶	18744
62	18745
##제이	18746
단연	18747
주전	18748
에게	18749
수채	18750
버무	18751
틴	18752
맥도날드	18753
곶감	18754
베이컨	18755
마그네	18756
이북	18757
270	18758
눠	18759
지천	18760
높인	18761
반증	18762
히로	18763
김광석	18764
북상	18765
2004	18766
이뤄지지	18767
도태	18768
##미트	18769
교육부	18770
서연	18771
소임	18772
오묘	18773
지배자	18774
##테르	18775
처럼	18776
##조작	18777
획기	18778
진다고	18779
아티	18780
입체	18781
##팽이	18782
오명	18783
불러일으키	18784
하층	18785
필립	18786
수필	18787
승강	18788
능통	18789
제조사	18790
민사	18791
진구	18792
공의회	18793
팔레	18794
빈번	18795
장한	18796
빈곤	18797
후추	18798
젠더	18799
혼동	18800
참기름	18801
건담	18802
융합	18803
주당	18804
방제	18805
휴스턴	18806
태화	18807
##멘트	18808
스타인	18809
쟁점	18810
완충	18811
독보	18812
장보	18813
꼽힌다	18814
건조기	18815
술부	18816
##높	18817
거둘	18818
독과	18819
체증	18820
계약자	18821
김홍	18822
니까	18823
통학	18824
정쟁	18825
대패	18826
추신	18827
다방면	18828
카네기	18829
결실	18830
스펜	18831
김경	18832
불출마	18833
뼈아	18834
오프라인	18835
사은	18836
슈팅	18837
갖출	18838
버블	18839
정청	18840
공문서	18841
유념	18842
아메리카노	18843
부산항	18844
잉여	18845
탄수화물	18846
요직	18847
발족	18848
이주민	18849
매서	18850
##빔	18851
투혼	18852
상징물	18853
재취업	18854
쎄	18855
지오	18856
병변	18857
짤막	18858
##베르크	18859
쇄신	18860
##어스	18861
총액	18862
조니	18863
84	18864
클렌징	18865
##뜀	18866
##89	18867
표고	18868
주영	18869
SE	18870
츠	18871
악장	18872
##킴	18873
포스팅	18874
드레	18875
성현	18876
악영향	18877
리처드	18878
위트	18879
햐	18880
생겨났	18881
우르	18882
양기	18883
철강	18884
미성	18885
경로당	18886
접해	18887
쟁쟁	18888
부사	18889
##여대	18890
한전	18891
KBO	18892
8000	18893
상정	18894
##캐롤라이나	18895
약식	18896
단말	18897
심포지엄	18898
단행	18899
와우	18900
습기	18901
내진	18902
겨울철	18903
커스	18904
##체육	18905
##re	18906
외고	18907
완구	18908
광범위	18909
준우	18910
도로공사	18911
현수	18912
오하이오	18913
##바야	18914
##툭	18915
자연히	18916
박주	18917
불감증	18918
##교동	18919
견고	18920
에버랜드	18921
시행착오	18922
알렉산드	18923
육박	18924
후대	18925
소정	18926
장기간	18927
세일즈맨	18928
배임	18929
경작	18930
원산지	18931
미성년	18932
명기	18933
시모	18934
블로거	18935
제철	18936
개화	18937
무용단	18938
##킨스	18939
밀라노	18940
기자단	18941
평평	18942
영화인	18943
동계	18944
관례	18945
설욕	18946
스리	18947
디트로이트	18948
회동	18949
유착	18950
꼽히	18951
육감	18952
오스카	18953
##모니	18954
연간	18955
만족도	18956
간결	18957
96	18958
테드	18959
광해	18960
##삯	18961
면역력	18962
##숏	18963
체인점	18964
마침표	18965
에밀리	18966
어사	18967
시공	18968
No	18969
마포구	18970
##넙	18971
82	18972
##혈증	18973
배합	18974
문법	18975
막중	18976
##햅	18977
마일	18978
치달	18979
가비	18980
약관	18981
넓이	18982
be	18983
비례	18984
하버	18985
더한다	18986
브리	18987
실태	18988
##레나	18989
완패	18990
거려	18991
목조	18992
유소년	18993
블	18994
연패	18995
달마	18996
무더운	18997
치도	18998
실점	18999
불펜	19000
##퍼니	19001
자몽	19002
##ake	19003
we	19004
이순신	19005
한국은행	19006
정윤	19007
질소	19008
오정	19009
한림	19010
핵연료	19011
뭄	19012
LCD	19013
##눅	19014
스트리트	19015
몸소	19016
재검토	19017
저속	19018
디즈니	19019
클러치	19020
켄	19021
민국	19022
공동체	19023
##혐	19024
베토벤	19025
전서	19026
피라미	19027
소상	19028
매운탕	19029
##렁크	19030
파커	19031
향긋	19032
경남	19033
여야	19034
굳건	19035
척박	19036
2008	19037
무분별	19038
봄날	19039
싯	19040
MIT	19041
##계선	19042
생태계	19043
인도네시아	19044
탐구	19045
##캣	19046
이론가	19047
조셉	19048
정품	19049
유황	19050
고음	19051
국민당	19052
정구	19053
숱한	19054
따왔	19055
##스토	19056
오갔	19057
##햇	19058
금빛	19059
대칭	19060
에서	19061
차관	19062
원산	19063
북동부	19064
득실	19065
동떨어진	19066
구청장	19067
스냅	19068
고공	19069
연임	19070
미덕	19071
탈모	19072
에티	19073
얼리	19074
##추어	19075
유익	19076
찰떡	19077
카운티	19078
국내외	19079
어가	19080
십일	19081
근소	19082
지하수	19083
아르	19084
숙종	19085
활자	19086
전셋	19087
호우	19088
##탓	19089
발리	19090
고갈	19091
에프	19092
측량	19093
겅	19094
대장군	19095
려	19096
박태	19097
목동	19098
성산	19099
술탄	19100
명쾌	19101
양념장	19102
본토	19103
포르투갈	19104
타임즈	19105
제제	19106
한은	19107
함수	19108
고명	19109
오토	19110
묘미	19111
빛깔	19112
백두	19113
154	19114
공산주의	19115
이루어져야	19116
경진	19117
반포	19118
##기능	19119
위상	19120
저당	19121
##홧	19122
로테이션	19123
부합	19124
교포	19125
아이젠	19126
으흠	19127
##괄	19128
59	19129
예치	19130
선착순	19131
MBC	19132
는다	19133
데이비드	19134
이수	19135
과태료	19136
##사관학교	19137
##듦	19138
번트	19139
효용	19140
맬	19141
뜨거웠	19142
고령	19143
직영	19144
1600	19145
총독부	19146
더니	19147
상권	19148
선거인	19149
케냐	19150
##인다는	19151
##늙	19152
문답	19153
민영	19154
영위	19155
밀려났	19156
##퉤	19157
엘지	19158
직분	19159
공론	19160
거래량	19161
유의미	19162
레알	19163
퇴행	19164
이뤄낸	19165
암세포	19166
중복	19167
인문학	19168
손꼽	19169
메릴	19170
랍	19171
지향	19172
해충	19173
##74	19174
##눴	19175
어우러져	19176
레트	19177
이토록	19178
좃	19179
나미	19180
마리나	19181
박준	19182
##문학	19183
띈	19184
센티	19185
체크카드	19186
세도	19187
낙점	19188
프로세	19189
LED	19190
카를로스	19191
탐라	19192
301	19193
녹지	19194
인내	19195
잔여	19196
토마스	19197
강원	19198
세일즈	19199
무방	19200
낮출	19201
전라	19202
가입자	19203
이름난	19204
통틀어	19205
래리	19206
유고	19207
남아공	19208
청담	19209
예탁	19210
둡	19211
##잰	19212
수요	19213
기아	19214
ET	19215
문호	19216
차세대	19217
애견	19218
법규	19219
##연맹	19220
FM	19221
밝기	19222
말랑	19223
t	19224
대니얼	19225
인민공화국	19226
다퉈	19227
교직	19228
2006	19229
사월	19230
나그네	19231
동남아시아	19232
71	19233
이바지	19234
##텀	19235
본디	19236
됩	19237
미만	19238
컬렉션	19239
등용	19240
비약	19241
찹	19242
131	19243
일어섰	19244
남녀노소	19245
아미	19246
협주곡	19247
왕건	19248
로지	19249
극소수	19250
증권가	19251
##웹	19252
빽	19253
숙성	19254
##스티	19255
##쪘	19256
캠페인	19257
급등	19258
##커스	19259
##ON	19260
뱅크	19261
전년도	19262
CP	19263
서머	19264
일간	19265
순환	19266
뚝딱	19267
수복	19268
쯔	19269
조속히	19270
다문화	19271
마카	19272
##일리	19273
할인점	19274
박철	19275
헤아릴	19276
역내	19277
하향	19278
성남	19279
영동	19280
산뜻	19281
윤지	19282
비니	19283
기울여야	19284
득표	19285
직관	19286
카테고리	19287
허덕	19288
기름기	19289
통관	19290
무침	19291
경도	19292
농사일	19293
해리스	19294
비박	19295
미상	19296
동종	19297
고구려	19298
매콤	19299
##유예	19300
인척	19301
절실히	19302
셔서	19303
진드기	19304
보호관	19305
선교	19306
횟	19307
정봉	19308
##경영	19309
##탤	19310
손익	19311
세워졌	19312
떫	19313
대차	19314
플러스	19315
다며	19316
##민석	19317
통감	19318
부적합	19319
##상조	19320
이광수	19321
매리	19322
루비	19323
메시아	19324
##뻬	19325
플로리	19326
섭	19327
트라이	19328
구국	19329
##통수	19330
##츰	19331
무가	19332
롯데월드	19333
##결승	19334
베이커	19335
영종	19336
집니다	19337
애프터	19338
실정	19339
밑그림	19340
방정식	19341
수자원	19342
라도	19343
안성	19344
##뛸	19345
발암	19346
증시	19347
바디	19348
포니	19349
새로이	19350
선진국	19351
역삼	19352
예술인	19353
아리아	19354
멤버십	19355
쫀	19356
바라봤	19357
보병	19358
반공	19359
궁핍	19360
##F	19361
두유	19362
나폴리	19363
더라	19364
이노	19365
수천억	19366
풍년	19367
CC	19368
랜덤	19369
형조	19370
생가	19371
참판	19372
프로그래머	19373
동장	19374
골격	19375
광택	19376
관청	19377
##마차	19378
내수	19379
포천	19380
##es	19381
사망률	19382
이를테면	19383
부교	19384
엑스포	19385
퍼펙트	19386
분포	19387
황보	19388
장항	19389
홋카이도	19390
소크라테스	19391
무드	19392
환수	19393
108	19394
가즈	19395
추심	19396
보령	19397
경제학	19398
영수	19399
조진	19400
##is	19401
최하위	19402
리아	19403
회당	19404
PR	19405
신예	19406
##걀	19407
남미	19408
타임스	19409
하도급	19410
##원회	19411
습도	19412
달팽이	19413
아흐	19414
##삑	19415
##법인	19416
듭	19417
드로잉	19418
소재지	19419
급선	19420
리얼리티	19421
IN	19422
모란	19423
특산물	19424
스티브	19425
봇	19426
떨어진다는	19427
정모	19428
초년	19429
얽	19430
##몇	19431
부드	19432
나침	19433
십이	19434
GO	19435
생동감	19436
강서	19437
가속도	19438
개회	19439
##BC	19440
##미야	19441
영남	19442
##쥬	19443
자력	19444
찹쌀	19445
최다	19446
##모토	19447
##밈	19448
항공우주	19449
재청	19450
